{
  "version": "1.0",
  "truncation": null,
  "padding": null,
  "added_tokens": [
    {
      "id": 0,
      "content": "<bos>",
      "single_word": false,
      "lstrip": false,
      "rstrip": false,
      "normalized": false,
      "special": true
    },
    {
      "id": 1,
      "content": "<eos>",
      "single_word": false,
      "lstrip": false,
      "rstrip": false,
      "normalized": false,
      "special": true
    },
    {
      "id": 2,
      "content": "<pad>",
      "single_word": false,
      "lstrip": false,
      "rstrip": false,
      "normalized": false,
      "special": true
    },
    {
      "id": 3,
      "content": "<unk>",
      "single_word": false,
      "lstrip": false,
      "rstrip": false,
      "normalized": false,
      "special": true
    },
    {
      "id": 4,
      "content": "<schema>",
      "single_word": false,
      "lstrip": false,
      "rstrip": false,
      "normalized": false,
      "special": true
    },
    {
      "id": 5,
      "content": "<question>",
      "single_word": false,
      "lstrip": false,
      "rstrip": false,
      "normalized": false,
      "special": true
    },
    {
      "id": 6,
      "content": "<sql>",
      "single_word": false,
      "lstrip": false,
      "rstrip": false,
      "normalized": false,
      "special": true
    },
    {
      "id": 7,
      "content": "</schema>",
      "single_word": false,
      "lstrip": false,
      "rstrip": false,
      "normalized": false,
      "special": true
    },
    {
      "id": 8,
      "content": "</question>",
      "single_word": false,
      "lstrip": false,
      "rstrip": false,
      "normalized": false,
      "special": true
    },
    {
      "id": 9,
      "content": "</sql>",
      "single_word": false,
      "lstrip": false,
      "rstrip": false,
      "normalized": false,
      "special": true
    },
    {
      "id": 10,
      "content": "<reserved_0>",
      "single_word": false,
      "lstrip": false,
      "rstrip": false,
      "normalized": false,
      "special": true
    },
    {
      "id": 11,
      "content": "<reserved_1>",
      "single_word": false,
      "lstrip": false,
      "rstrip": false,
      "normalized": false,
      "special": true
    },
    {
      "id": 12,
      "content": "<reserved_2>",
      "single_word": false,
      "lstrip": false,
      "rstrip": false,
      "normalized": false,
      "special": true
    },
    {
      "id": 13,
      "content": "<reserved_3>",
      "single_word": false,
      "lstrip": false,
      "rstrip": false,
      "normalized": false,
      "special": true
    },
    {
      "id": 14,
      "content": "<reserved_4>",
      "single_word": false,
      "lstrip": false,
      "rstrip": false,
      "normalized": false,
      "special": true
    },
    {
      "id": 15,
      "content": "<reserved_5>",
      "single_word": false,
      "lstrip": false,
      "rstrip": false,
      "normalized": false,
      "special": true
    },
    {
      "id": 16,
      "content": "<reserved_6>",
      "single_word": false,
      "lstrip": false,
      "rstrip": false,
      "normalized": false,
      "special": true
    },
    {
      "id": 17,
      "content": "<reserved_7>",
      "single_word": false,
      "lstrip": false,
      "rstrip": false,
      "normalized": false,
      "special": true
    },
    {
      "id": 18,
      "content": "<reserved_8>",
      "single_word": false,
      "lstrip": false,
      "rstrip": false,
      "normalized": false,
      "special": true
    },
    {
      "id": 19,
      "content": "<reserved_9>",
      "single_word": false,
      "lstrip": false,
      "rstrip": false,
      "normalized": false,
      "special": true
    },
    {
      "id": 20,
      "content": "<reserved_10>",
      "single_word": false,
      "lstrip": false,
      "rstrip": false,
      "normalized": false,
      "special": true
    },
    {
      "id": 21,
      "content": "<reserved_11>",
      "single_word": false,
      "lstrip": false,
      "rstrip": false,
      "normalized": false,
      "special": true
    },
    {
      "id": 22,
      "content": "<reserved_12>",
      "single_word": false,
      "lstrip": false,
      "rstrip": false,
      "normalized": false,
      "special": true
    }
  ],
  "normalizer": null,
  "pre_tokenizer": {
    "type": "Sequence",
    "pretokenizers": [
      {
        "type": "Digits",
        "individual_digits": true
      },
      {
        "type": "ByteLevel",
        "add_prefix_space": false,
        "trim_offsets": true,
        "use_regex": true
      }
    ]
  },
  "post_processor": null,
  "decoder": {
    "type": "ByteLevel",
    "add_prefix_space": true,
    "trim_offsets": true,
    "use_regex": true
  },
  "model": {
    "type": "BPE",
    "dropout": null,
    "unk_token": "<unk>",
    "continuing_subword_prefix": null,
    "end_of_word_suffix": null,
    "fuse_unk": false,
    "byte_fallback": false,
    "ignore_merges": false,
    "vocab": {
      "<bos>": 0,
      "<eos>": 1,
      "<pad>": 2,
      "<unk>": 3,
      "<schema>": 4,
      "<question>": 5,
      "<sql>": 6,
      "</schema>": 7,
      "</question>": 8,
      "</sql>": 9,
      "<reserved_0>": 10,
      "<reserved_1>": 11,
      "<reserved_2>": 12,
      "<reserved_3>": 13,
      "<reserved_4>": 14,
      "<reserved_5>": 15,
      "<reserved_6>": 16,
      "<reserved_7>": 17,
      "<reserved_8>": 18,
      "<reserved_9>": 19,
      "<reserved_10>": 20,
      "<reserved_11>": 21,
      "<reserved_12>": 22,
      "!": 23,
      "\"": 24,
      "#": 25,
      "$": 26,
      "%": 27,
      "&": 28,
      "'": 29,
      "(": 30,
      ")": 31,
      "*": 32,
      "+": 33,
      ",": 34,
      "-": 35,
      ".": 36,
      "/": 37,
      "0": 38,
      "1": 39,
      "2": 40,
      "3": 41,
      "4": 42,
      "5": 43,
      "6": 44,
      "7": 45,
      "8": 46,
      "9": 47,
      ":": 48,
      ";": 49,
      "<": 50,
      "=": 51,
      ">": 52,
      "?": 53,
      "@": 54,
      "A": 55,
      "B": 56,
      "C": 57,
      "D": 58,
      "E": 59,
      "F": 60,
      "G": 61,
      "H": 62,
      "I": 63,
      "J": 64,
      "K": 65,
      "L": 66,
      "M": 67,
      "N": 68,
      "O": 69,
      "P": 70,
      "Q": 71,
      "R": 72,
      "S": 73,
      "T": 74,
      "U": 75,
      "V": 76,
      "W": 77,
      "X": 78,
      "Y": 79,
      "Z": 80,
      "[": 81,
      "\\": 82,
      "]": 83,
      "^": 84,
      "_": 85,
      "`": 86,
      "a": 87,
      "b": 88,
      "c": 89,
      "d": 90,
      "e": 91,
      "f": 92,
      "g": 93,
      "h": 94,
      "i": 95,
      "j": 96,
      "k": 97,
      "l": 98,
      "m": 99,
      "n": 100,
      "o": 101,
      "p": 102,
      "q": 103,
      "r": 104,
      "s": 105,
      "t": 106,
      "u": 107,
      "v": 108,
      "w": 109,
      "x": 110,
      "y": 111,
      "z": 112,
      "{": 113,
      "|": 114,
      "}": 115,
      "~": 116,
      "¡": 117,
      "¢": 118,
      "£": 119,
      "¤": 120,
      "¥": 121,
      "¦": 122,
      "§": 123,
      "¨": 124,
      "©": 125,
      "ª": 126,
      "«": 127,
      "¬": 128,
      "®": 129,
      "¯": 130,
      "°": 131,
      "±": 132,
      "²": 133,
      "³": 134,
      "´": 135,
      "µ": 136,
      "¶": 137,
      "·": 138,
      "¸": 139,
      "¹": 140,
      "º": 141,
      "»": 142,
      "¼": 143,
      "½": 144,
      "¾": 145,
      "¿": 146,
      "Â": 147,
      "Ã": 148,
      "Ä": 149,
      "Å": 150,
      "Æ": 151,
      "Ç": 152,
      "È": 153,
      "É": 154,
      "Ê": 155,
      "Ë": 156,
      "Ì": 157,
      "Í": 158,
      "Î": 159,
      "Ï": 160,
      "Ð": 161,
      "Ñ": 162,
      "Ò": 163,
      "Ó": 164,
      "Ô": 165,
      "Õ": 166,
      "Ö": 167,
      "×": 168,
      "Ø": 169,
      "Ù": 170,
      "Ú": 171,
      "Û": 172,
      "Ü": 173,
      "à": 174,
      "á": 175,
      "â": 176,
      "ã": 177,
      "ä": 178,
      "å": 179,
      "æ": 180,
      "ç": 181,
      "è": 182,
      "é": 183,
      "ê": 184,
      "ë": 185,
      "ì": 186,
      "í": 187,
      "ï": 188,
      "ð": 189,
      "ā": 190,
      "Ă": 191,
      "ă": 192,
      "Ć": 193,
      "Ĉ": 194,
      "ĉ": 195,
      "Ċ": 196,
      "č": 197,
      "ė": 198,
      "Ĝ": 199,
      "ğ": 200,
      "Ġ": 201,
      "ġ": 202,
      "Ģ": 203,
      "ģ": 204,
      "Ĥ": 205,
      "ĥ": 206,
      "Ħ": 207,
      "ħ": 208,
      "Ĩ": 209,
      "ĩ": 210,
      "Ī": 211,
      "ī": 212,
      "Ĭ": 213,
      "ĭ": 214,
      "Į": 215,
      "į": 216,
      "İ": 217,
      "ı": 218,
      "Ĳ": 219,
      "ĳ": 220,
      "Ĵ": 221,
      "ĵ": 222,
      "Ķ": 223,
      "ķ": 224,
      "ĸ": 225,
      "Ĺ": 226,
      "ĺ": 227,
      "Ļ": 228,
      "ļ": 229,
      "Ľ": 230,
      "ľ": 231,
      "Ŀ": 232,
      "ŀ": 233,
      "Ł": 234,
      "ł": 235,
      "Ń": 236,
      "čĊ": 237,
      "Ġt": 238,
      "ĠĠ": 239,
      "',": 240,
      "er": 241,
      "in": 242,
      "Ġa": 243,
      "at": 244,
      "Ġ'": 245,
      "LE": 246,
      "he": 247,
      "on": 248,
      "re": 249,
      "AR": 250,
      "SE": 251,
      "Ġc": 252,
      "le": 253,
      "me": 254,
      "--": 255,
      "ĠĠĠĠ": 256,
      "RE": 257,
      "Ġs": 258,
      "ĠF": 259,
      "RO": 260,
      "or": 261,
      "Ġ(": 262,
      "Ġthe": 263,
      "an": 264,
      "CT": 265,
      "id": 266,
      "ROM": 267,
      "ĠFROM": 268,
      "is": 269,
      "ar": 270,
      "TE": 271,
      "LECT": 272,
      "SELECT": 273,
      "IN": 274,
      "en": 275,
      "ĠW": 276,
      "ĠT": 277,
      "ĠV": 278,
      "it": 279,
      "es": 280,
      "al": 281,
      "Ġo": 282,
      "ĠN": 283,
      "','": 284,
      "ĠC": 285,
      "Ġp": 286,
      "ed": 287,
      "UL": 288,
      "Ġf": 289,
      "Ġw": 290,
      "Ġb": 291,
      "),": 292,
      "ame": 293,
      "Ġ=": 294,
      "Ġd": 295,
      "HAR": 296,
      "ab": 297,
      "ion": 298,
      "HE": 299,
      "ro": 300,
      "CHAR": 301,
      "ULL": 302,
      "ARCHAR": 303,
      "ĠA": 304,
      "ĠVARCHAR": 305,
      "ic": 306,
      "us": 307,
      "HERE": 308,
      "ĠWHERE": 309,
      "as": 310,
      "\\\"": 311,
      "name": 312,
      "able": 313,
      "nd": 314,
      "ing": 315,
      "Ġin": 316,
      "ATE": 317,
      "Ġof": 318,
      "----": 319,
      "AB": 320,
      "Ġh": 321,
      "Ġtable": 322,
      "ct": 323,
      "ABLE": 324,
      "ĠNULL": 325,
      "ĠTABLE": 326,
      "ĠĠĠĠĠĠĠĠ": 327,
      "te": 328,
      "Ġ`": 329,
      "ou": 330,
      ",'": 331,
      "Ġm": 332,
      "Ġto": 333,
      "DE": 334,
      "il": 335,
      "st": 336,
      "Ġand": 337,
      "REATE": 338,
      "Ġ\"": 339,
      "th": 340,
      ");": 341,
      "lo": 342,
      "ad": 343,
      "nt": 344,
      "ĠIN": 345,
      "'),": 346,
      "co": 347,
      "Ġn": 348,
      "Ġis": 349,
      "Ġe": 350,
      "ul": 351,
      "Ġre": 352,
      "ate": 353,
      "ch": 354,
      "ur": 355,
      "ve": 356,
      "Ġ*": 357,
      "AL": 358,
      "ĠO": 359,
      "ent": 360,
      "Ġth": 361,
      "la": 362,
      "mp": 363,
      "TO": 364,
      "ce": 365,
      "ĠS": 366,
      "ut": 367,
      "Ġfor": 368,
      "Ġy": 369,
      "ere": 370,
      "ers": 371,
      "ig": 372,
      "ĠCREATE": 373,
      "RT": 374,
      "ation": 375,
      "UE": 376,
      "et": 377,
      "ĠB": 378,
      "um": 379,
      "SERT": 380,
      "--------": 381,
      "ly": 382,
      "os": 383,
      "Ġid": 384,
      "Ġv": 385,
      "ra": 386,
      "INSERT": 387,
      "ĠCO": 388,
      "ĠINTO": 389,
      "Ġg": 390,
      "un": 391,
      "ĠM": 392,
      "de": 393,
      "ol": 394,
      "pp": 395,
      "Ġus": 396,
      ",\"": 397,
      "ag": 398,
      "ter": 399,
      "am": 400,
      "li": 401,
      "ĠP": 402,
      "ĠĠĠĠĠĠĠĠĠĠĠĠĠĠĠĠ": 403,
      "ot": 404,
      "ĠI": 405,
      "om": 406,
      "ĠE": 407,
      "ST": 408,
      "Ġcon": 409,
      "NT": 410,
      "ME": 411,
      "ĠD": 412,
      "ĠWh": 413,
      "ist": 414,
      "ir": 415,
      "se": 416,
      "'),(": 417,
      "ri": 418,
      "ALUE": 419,
      "pe": 420,
      "SET": 421,
      "ĠĠĠ": 422,
      "ALUES": 423,
      "ay": 424,
      "ow": 425,
      "Ġst": 426,
      "ĠDE": 427,
      "ĠJ": 428,
      "ome": 429,
      "OT": 430,
      "ĠVALUES": 431,
      "ĠSELECT": 432,
      "ated": 433,
      "Ġx": 434,
      "ND": 435,
      "ime": 436,
      "Ġ-": 437,
      "Ġbe": 438,
      "ver": 439,
      "ive": 440,
      "Ġhere": 441,
      "ččĊ": 442,
      "Ġwh": 443,
      "ss": 444,
      "xt": 445,
      "ER": 446,
      "NULL": 447,
      "TER": 448,
      "`,": 449,
      "ci": 450,
      "ith": 451,
      "Ġon": 452,
      "ult": 453,
      "Ġde": 454,
      "FA": 455,
      "\":": 456,
      "),(": 457,
      "ĠNOT": 458,
      "el": 459,
      "Ġcte": 460,
      "up": 461,
      "ther": 462,
      "and": 463,
      "ID": 464,
      "qu": 465,
      "Ġl": 466,
      "âĢ": 467,
      "ment": 468,
      "ĠAS": 469,
      "ĠH": 470,
      "est": 471,
      "ac": 472,
      "CREATE": 473,
      "Ġthat": 474,
      "ĠWhat": 475,
      "bl": 476,
      "ON": 477,
      "Ġwith": 478,
      "Ġint": 479,
      ":\\\"": 480,
      "int": 481,
      "ĠON": 482,
      "Ġres": 483,
      "od": 484,
      "ĠAND": 485,
      "ity": 486,
      "UP": 487,
      "IT": 488,
      "Ġ[": 489,
      "Ġname": 490,
      "ĠCOL": 491,
      "op": 492,
      "ber": 493,
      "arch": 494,
      "Ġpro": 495,
      "DD": 496,
      "ost": 497,
      "if": 498,
      "ht": 499,
      "ĠSET": 500,
      "ULT": 501,
      "im": 502,
      "UM": 503,
      "ount": 504,
      "art": 505,
      "ĠR": 506,
      "DATE": 507,
      "ĠL": 508,
      "Ġwas": 509,
      "Ġas": 510,
      "iv": 511,
      "we": 512,
      "FAULT": 513,
      "Ġr": 514,
      "Ġor": 515,
      "ĠDEFAULT": 516,
      "rom": 517,
      "ĠK": 518,
      "use": 519,
      "Ġ>": 520,
      "ke": 521,
      "our": 522,
      ",\\\"": 523,
      "----------------": 524,
      "ear": 525,
      "ys": 526,
      "UPDATE": 527,
      "ALTER": 528,
      "Ġal": 529,
      "col": 530,
      "AT": 531,
      "age": 532,
      "Ġapp": 533,
      "Ġcre": 534,
      "ore": 535,
      "ctive": 536,
      "Ð¾": 537,
      "OIN": 538,
      "Ġresult": 539,
      "pos": 540,
      "the": 541,
      "ĠJOIN": 542,
      "\\\":\\\"": 543,
      "Ġare": 544,
      "ord": 545,
      "');": 546,
      "ĠOR": 547,
      "ure": 548,
      "ĠBY": 549,
      "Ġte": 550,
      "Ġsome": 551,
      "Ġle": 552,
      "('": 553,
      "Ġan": 554,
      "end": 555,
      "Ġse": 556,
      "Ġother": 557,
      "ĠADD": 558,
      "ser": 559,
      "\\\",\\\"": 560,
      "Ġ'',": 561,
      "ew": 562,
      "ort": 563,
      "LETE": 564,
      "ĠG": 565,
      "';": 566,
      "ang": 567,
      "ĠÐ": 568,
      "Ġme": 569,
      "ĠU": 570,
      "Ġat": 571,
      "ue": 572,
      "Ġfrom": 573,
      "ap": 574,
      "ant": 575,
      "hen": 576,
      "archar": 577,
      "text": 578,
      "ry": 579,
      "Ġused": 580,
      "ass": 581,
      "Ġit": 582,
      "ION": 583,
      "MENT": 584,
      "Ġlo": 585,
      "uct": 586,
      "ich": 587,
      "ip": 588,
      "ode": 589,
      "Ġfil": 590,
      "DER": 591,
      "ĉĉ": 592,
      "ff": 593,
      "Ġex": 594,
      "Ġch": 595,
      "und": 596,
      "__": 597,
      "CE": 598,
      "av": 599,
      "Ġvarchar": 600,
      "));": 601,
      "ill": 602,
      "thing": 603,
      "ition": 604,
      "ype": 605,
      "lay": 606,
      "ĠĠĠĠĠĠĠĠĠĠĠĠĠĠĠĠĠĠĠĠĠĠĠĠĠĠĠĠĠĠĠĠ": 607,
      "amp": 608,
      "UMN": 609,
      "ma": 610,
      "ĠORDER": 611,
      "],": 612,
      "ies": 613,
      "ĠCOLUMN": 614,
      "Ġcreated": 615,
      "ia": 616,
      "min": 617,
      "Ġactive": 618,
      "ĠTR": 619,
      "Ġpur": 620,
      "ĠčĊ": 621,
      "CA": 622,
      "Ġby": 623,
      "ITH": 624,
      "Ġfilter": 625,
      "Ġusers": 626,
      "Ġcla": 627,
      "Ġ(`": 628,
      "ull": 629,
      "ice": 630,
      "Ġsomething": 631,
      "Ġapply": 632,
      "ast": 633,
      "ud": 634,
      "DELETE": 635,
      "Ð°": 636,
      ",-": 637,
      "\",\"": 638,
      "Ġpurpos": 639,
      "Ðµ": 640,
      "Ġcontext": 641,
      "ĠTRUE": 642,
      "act": 643,
      "Ġclause": 644,
      "Ġpurposes": 645,
      "Ġco": 646,
      "cre": 647,
      "WITH": 648,
      "ary": 649,
      "Ġtbl": 650,
      "IM": 651,
      "ĠThe": 652,
      "EY": 653,
      "ng": 654,
      "utf": 655,
      "ight": 656,
      "mer": 657,
      "num": 658,
      "ces": 659,
      "Ġnot": 660,
      "\",": 661,
      "ust": 662,
      "les": 663,
      "ain": 664,
      "ub": 665,
      "Ġhas": 666,
      "ld": 667,
      "date": 668,
      "pt": 669,
      "sp": 670,
      "Ġdate": 671,
      "ave": 672,
      "CO": 673,
      "Ð¸": 674,
      "ions": 675,
      "ĠKEY": 676,
      "ance": 677,
      "Ġhe": 678,
      "Ġthan": 679,
      "con": 680,
      "ine": 681,
      "GER": 682,
      "ge": 683,
      "lect": 684,
      "Lo": 685,
      "ire": 686,
      "ans": 687,
      "IG": 688,
      "Ġwhen": 689,
      "Ġtime": 690,
      "**": 691,
      "com": 692,
      "ug": 693,
      "</": 694,
      "ck": 695,
      "AN": 696,
      "ard": 697,
      "á»": 698,
      "oint": 699,
      "per": 700,
      "all": 701,
      "ect": 702,
      "Ġj": 703,
      "core": 704,
      "log": 705,
      "TEGER": 706,
      "Ð¾Ð": 707,
      "tem": 708,
      "ĠINTEGER": 709,
      "cl": 710,
      "PE": 711,
      "raw": 712,
      "Ġli": 713,
      "iz": 714,
      "load": 715,
      "are": 716,
      "ak": 717,
      "ong": 718,
      "AA": 719,
      "Ġk": 720,
      "ase": 721,
      "time": 722,
      "`)": 723,
      "ib": 724,
      "io": 725,
      "ĠEX": 726,
      "Ġ('": 727,
      "ph": 728,
      "ory": 729,
      "ner": 730,
      "mb": 731,
      "Ġhave": 732,
      "Ġyear": 733,
      "ÑĤ": 734,
      "IST": 735,
      "ï¼": 736,
      "Ġen": 737,
      "ign": 738,
      "Ñģ": 739,
      "'s": 740,
      "ä¸": 741,
      "for": 742,
      "Ġutf": 743,
      "Ġi": 744,
      "Ġun": 745,
      "any": 746,
      "ical": 747,
      "no": 748,
      "Ġnull": 749,
      "ee": 750,
      "one": 751,
      "ÑĢ": 752,
      "Load": 753,
      "Ġsh": 754,
      "res": 755,
      "omm": 756,
      "fer": 757,
      "comp": 758,
      "ind": 759,
      "Ġplay": 760,
      "tr": 761,
      "Id": 762,
      "Ġ@": 763,
      "Ð½": 764,
      "uter": 765,
      "ok": 766,
      "count": 767,
      "UNT": 768,
      "RA": 769,
      "Ġcan": 770,
      "Ġro": 771,
      "duct": 772,
      "out": 773,
      "pro": 774,
      "ec": 775,
      "sh": 776,
      "ata": 777,
      "Ġcount": 778,
      "ie": 779,
      "MMENT": 780,
      "ork": 781,
      "ite": 782,
      "LO": 783,
      "Ġdo": 784,
      "Ġyou": 785,
      "ystem": 786,
      "Ġinto": 787,
      "sert": 788,
      "ĠĠĠĠĠĠĠ": 789,
      "ial": 790,
      "ile": 791,
      "ish": 792,
      "ole": 793,
      "`,`": 794,
      "Ġ<": 795,
      "OR": 796,
      "user": 797,
      "ank": 798,
      "Ġma": 799,
      "che": 800,
      "ĠIn": 801,
      "In": 802,
      "ick": 803,
      "bo": 804,
      "ll": 805,
      "ence": 806,
      "reg": 807,
      "ian": 808,
      "tp": 809,
      "ĠCOUNT": 810,
      "ations": 811,
      "ack": 812,
      "admin": 813,
      "Ġcl": 814,
      "Ġcomp": 815,
      "ms": 816,
      "\\\\": 817,
      "ues": 818,
      "uc": 819,
      "Ġad": 820,
      "//": 821,
      "Ġnum": 822,
      "ft": 823,
      "AS": 824,
      "Ġteam": 825,
      "type": 826,
      "FF": 827,
      "oints": 828,
      "ĠCHAR": 829,
      "own": 830,
      "ĠCOLL": 831,
      "IME": 832,
      "ater": 833,
      "AM": 834,
      "'),('": 835,
      "Ġthis": 836,
      "team": 837,
      "Ġscore": 838,
      "Ġper": 839,
      "INT": 840,
      "ĠCOLLATE": 841,
      "ï¼Į": 842,
      "ob": 843,
      "ens": 844,
      "Ġval": 845,
      "ĠCOMMENT": 846,
      "Ġtr": 847,
      "ould": 848,
      "CRE": 849,
      "âĢĻ": 850,
      "ress": 851,
      "ach": 852,
      "ail": 853,
      "UTO": 854,
      "ĠSt": 855,
      "IS": 856,
      "Ġwhich": 857,
      "val": 858,
      "ĠTh": 859,
      "Ġmore": 860,
      "ex": 861,
      "The": 862,
      "DB": 863,
      "ubl": 864,
      "cord": 865,
      "ide": 866,
      "ess": 867,
      "low": 868,
      "CREMENT": 869,
      "by": 870,
      "ild": 871,
      "nummer": 872,
      "ĠĠĠĠĠĠĠĠĠĠĠĠĠĠĠĠĠĠĠĠĠĠĠĠĠĠĠĠĠĠĠĠĠĠĠĠĠĠĠĠĠĠĠĠĠĠĠĠĠĠĠĠĠĠĠĠĠĠĠĠĠĠĠĠ": 873,
      "NE": 874,
      "Ġdis": 875,
      "ict": 876,
      "str": 877,
      "ĠAUTO": 878,
      "Post": 879,
      "als": 880,
      "><": 881,
      "áº": 882,
      "igh": 883,
      "Ġwere": 884,
      "Ġqu": 885,
      "INCREMENT": 886,
      "eb": 887,
      "Ġab": 888,
      "Ã£": 889,
      "onent": 890,
      "AX": 891,
      "ep": 892,
      "SC": 893,
      "ATION": 894,
      "Ġbo": 895,
      "vent": 896,
      "ell": 897,
      "==": 898,
      "Ġwhere": 899,
      "ĠâĢ": 900,
      "Ġar": 901,
      "Ð»": 902,
      "IF": 903,
      "gen": 904,
      "Ġwhat": 905,
      "urre": 906,
      "Ġnumber": 907,
      "Ġgo": 908,
      "Ġup": 909,
      "SS": 910,
      "fa": 911,
      "Ġmany": 912,
      "irst": 913,
      "Ġpart": 914,
      "ARY": 915,
      "iss": 916,
      "://": 917,
      "cess": 918,
      "/*": 919,
      "Ġne": 920,
      "computer": 921,
      "une": 922,
      "ING": 923,
      "rawLoad": 924,
      "so": 925,
      "ath": 926,
      "tal": 927,
      "itle": 928,
      "ACT": 929,
      "Ġtheir": 930,
      "Ġpos": 931,
      "stamp": 932,
      "cy": 933,
      "Ġsp": 934,
      "arg": 935,
      "ãĢ": 936,
      "Ġcont": 937,
      "ĠName": 938,
      "AST": 939,
      "ual": 940,
      "NA": 941,
      "æľ": 942,
      "way": 943,
      "GE": 944,
      "Ġla": 945,
      "Ġsu": 946,
      "fin": 947,
      "RIM": 948,
      "ors": 949,
      "ISTS": 950,
      "ICA": 951,
      "oc": 952,
      "Ġac": 953,
      "ĠWhich": 954,
      "US": 955,
      "of": 956,
      "old": 957,
      "Ġdist": 958,
      "gro": 959,
      "ute": 960,
      "ists": 961,
      "Ġ*/": 962,
      "ru": 963,
      "Ġall": 964,
      "cri": 965,
      "atus": 966,
      "ROP": 967,
      "pponent": 968,
      "form": 969,
      "åı": 970,
      "ins": 971,
      "Ġwe": 972,
      "set": 973,
      "INE": 974,
      "Ġhad": 975,
      "ĠEXISTS": 976,
      "ject": 977,
      "Ġso": 978,
      "XÃ£": 979,
      "ont": 980,
      "ates": 981,
      "ven": 982,
      "RIMARY": 983,
      "ale": 984,
      "ons": 985,
      "\\\";": 986,
      "ĠUN": 987,
      "number": 988,
      "http": 989,
      "AD": 990,
      "ound": 991,
      "Ġplayer": 992,
      "sys": 993,
      "CD": 994,
      "ublic": 995,
      "ĠMAX": 996,
      "ww": 997,
      "vel": 998,
      "Ġstr": 999,
      "Ġthey": 1000,
      "iew": 1001,
      "UR": 1002,
      "cent": 1003,
      "ade": 1004,
      "NG": 1005,
      "Ġcol": 1006,
      "Ġmin": 1007,
      "ĠCh": 1008,
      "ne": 1009,
      "mail": 1010,
      "Ġclass": 1011,
      "IE": 1012,
      "ateg": 1013,
      "/*!": 1014,
      "Ġvalues": 1015,
      "ree": 1016,
      "rit": 1017,
      "****": 1018,
      "XT": 1019,
      "Ġwill": 1020,
      "Ġatt": 1021,
      "urrent": 1022,
      "ark": 1023,
      "ning": 1024,
      "Tom": 1025,
      "FE": 1026,
      "ĠPRIMARY": 1027,
      "ĠY": 1028,
      "unic": 1029,
      "insert": 1030,
      "og": 1031,
      "men": 1032,
      "Ġgame": 1033,
      "AMP": 1034,
      "ik": 1035,
      "ĠHow": 1036,
      "ACTER": 1037,
      "ãģ": 1038,
      "cho": 1039,
      "Ġlike": 1040,
      "Ġtext": 1041,
      "Ġag": 1042,
      "Ġpost": 1043,
      "db": 1044,
      "Ġ----------------": 1045,
      "Ġtotal": 1046,
      "=\\\"": 1047,
      "Ġ',": 1048,
      "ov": 1049,
      "ible": 1050,
      "St": 1051,
      "RI": 1052,
      "ah": 1053,
      "att": 1054,
      "ICAg": 1055,
      "Ġ*/;": 1056,
      "eral": 1057,
      "IMEST": 1058,
      "ĠMIN": 1059,
      "row": 1060,
      "aw": 1061,
      "Ġpl": 1062,
      "ĠAL": 1063,
      "Ġloc": 1064,
      "mal": 1065,
      "Re": 1066,
      "Ġser": 1067,
      "Ġpre": 1068,
      "Ġout": 1069,
      "Ġoff": 1070,
      "CB": 1071,
      "ns": 1072,
      "Ġbut": 1073,
      "ction": 1074,
      "Th": 1075,
      "Ġhome": 1076,
      "ICAgICAg": 1077,
      "Ġwho": 1078,
      "ational": 1079,
      "å¸": 1080,
      "Ġone": 1081,
      "man": 1082,
      "rop": 1083,
      "fe": 1084,
      "IMESTAMP": 1085,
      "ĠRE": 1086,
      "Ġrep": 1087,
      "à¸": 1088,
      "span": 1089,
      "å®": 1090,
      "åĮ": 1091,
      "Ðº": 1092,
      "inal": 1093,
      "lient": 1094,
      "ross": 1095,
      "Ġund": 1096,
      "CK": 1097,
      "pg": 1098,
      "led": 1099,
      "Ġno": 1100,
      ">\\": 1101,
      "iel": 1102,
      "uth": 1103,
      "div": 1104,
      "Ġav": 1105,
      "pr": 1106,
      "ato": 1107,
      "VG": 1108,
      "\\\":": 1109,
      "IA": 1110,
      "ose": 1111,
      "Ġrecord": 1112,
      "ĠCON": 1113,
      "AP": 1114,
      "Ġimp": 1115,
      "Ġ\\\"": 1116,
      "Ġbig": 1117,
      "ood": 1118,
      "code": 1119,
      "Ġdes": 1120,
      "ca": 1121,
      "Ġyour": 1122,
      "loy": 1123,
      ",''),(": 1124,
      "ery": 1125,
      "Ġtimestamp": 1126,
      "ä»": 1127,
      "ĠTE": 1128,
      ").": 1129,
      "PT": 1130,
      "create": 1131,
      "Ġpe": 1132,
      "áĢ": 1133,
      "Ġopponent": 1134,
      "role": 1135,
      "äº": 1136,
      "ied": 1137,
      "cript": 1138,
      "ason": 1139,
      "Ġpoints": 1140,
      "lace": 1141,
      "Ġspe": 1142,
      "lete": 1143,
      "âĢĵ": 1144,
      "åİ": 1145,
      "cial": 1146,
      "ments": 1147,
      "NCE": 1148,
      "CODE": 1149,
      "ics": 1150,
      "Ġthere": 1151,
      "mploy": 1152,
      "Ñĥ": 1153,
      "to": 1154,
      "Ġinter": 1155,
      "cc": 1156,
      "Ġstud": 1157,
      "ef": 1158,
      "br": 1159,
      "ield": 1160,
      "ps": 1161,
      "ivers": 1162,
      "ular": 1163,
      "ix": 1164,
      "cept": 1165,
      "HT": 1166,
      "em": 1167,
      "STRA": 1168,
      "PRO": 1169,
      "Ch": 1170,
      "ings": 1171,
      "âĢĿ": 1172,
      "country": 1173,
      "Ġ:": 1174,
      "ision": 1175,
      "Ø§": 1176,
      "ĠINT": 1177,
      "chool": 1178,
      "åħ": 1179,
      "endance": 1180,
      "Ġcomm": 1181,
      "oin": 1182,
      "STRAINT": 1183,
      "Ġhis": 1184,
      "ĠAVG": 1185,
      "UN": 1186,
      "Ġ,": 1187,
      "Ġsa": 1188,
      "ucture": 1189,
      "client": 1190,
      "rib": 1191,
      "Ġalso": 1192,
      "reat": 1193,
      "Ġfirst": 1194,
      "atch": 1195,
      "ient": 1196,
      "çļ": 1197,
      "Ġwork": 1198,
      "cont": 1199,
      "Ġposition": 1200,
      "lic": 1201,
      "year": 1202,
      "ace": 1203,
      "key": 1204,
      "\\'": 1205,
      "ĠIF": 1206,
      "LEAR": 1207,
      "Ġgen": 1208,
      "status": 1209,
      "çļĦ": 1210,
      "FAQ": 1211,
      "Ġhigh": 1212,
      "CL": 1213,
      "CG": 1214,
      "Tomato": 1215,
      "ĠSUM": 1216,
      "ĠCONSTRAINT": 1217,
      "å·": 1218,
      "NGINE": 1219,
      "åĪ": 1220,
      "Ġbigint": 1221,
      "Ġover": 1222,
      "åİ¿": 1223,
      "menu": 1224,
      "ts": 1225,
      "Ñĭ": 1226,
      "add": 1227,
      "Ġif": 1228,
      "IL": 1229,
      "Ð²": 1230,
      "ty": 1231,
      "gr": 1232,
      "OL": 1233,
      "ORE": 1234,
      "ren": 1235,
      "ific": 1236,
      ".\"": 1237,
      "å¤": 1238,
      "irect": 1239,
      "ople": 1240,
      "å¸Ĥ": 1241,
      "ategory": 1242,
      "Ġph": 1243,
      "Ġmay": 1244,
      "ĠUn": 1245,
      "ands": 1246,
      "Ġabout": 1247,
      "ĠENGINE": 1248,
      "unicode": 1249,
      "User": 1250,
      "ten": 1251,
      "ink": 1252,
      "ĠCHARACTER": 1253,
      "app": 1254,
      "AAAA": 1255,
      "pay": 1256,
      "mber": 1257,
      "Ġcountry": 1258,
      "Ġbet": 1259,
      "jpg": 1260,
      "Ġra": 1261,
      "Ġless": 1262,
      "çĶ": 1263,
      "Ġflo": 1264,
      "po": 1265,
      "Ġright": 1266,
      "Ġrank": 1267,
      "AV": 1268,
      "Ġpublic": 1269,
      "','','": 1270,
      "ert": 1271,
      "ai": 1272,
      "par": 1273,
      "QUE": 1274,
      "ĠĠĠĠĠ": 1275,
      "Pro": 1276,
      "dd": 1277,
      "yn": 1278,
      "ĠALTER": 1279,
      "åį": 1280,
      "created": 1281,
      "ize": 1282,
      "`),": 1283,
      "Time": 1284,
      "Ġreg": 1285,
      "orts": 1286,
      "ous": 1287,
      "gan": 1288,
      "\",\"\",\"": 1289,
      "ities": 1290,
      "Ġbeen": 1291,
      "ommune": 1292,
      "ved": 1293,
      "ĠCAST": 1294,
      "Ġmax": 1295,
      "acter": 1296,
      "Ñı": 1297,
      "gh": 1298,
      "ainst": 1299,
      "EC": 1300,
      "SER": 1301,
      "ze": 1302,
      "Ġsm": 1303,
      "ating": 1304,
      "Ġits": 1305,
      "IGN": 1306,
      "let": 1307,
      "åĮº": 1308,
      "æĸ": 1309,
      "ced": 1310,
      "Ġnew": 1311,
      "ales": 1312,
      "lif": 1313,
      "Ġchar": 1314,
      "ĉĉĉĉ": 1315,
      "Ġproduct": 1316,
      "ative": 1317,
      "',@": 1318,
      "ond": 1319,
      "Ġdata": 1320,
      "sted": 1321,
      "ax": 1322,
      "erson": 1323,
      "dex": 1324,
      "Ġ--": 1325,
      "ustom": 1326,
      "Ġmost": 1327,
      "YPE": 1328,
      "ĠUPDATE": 1329,
      "view": 1330,
      "MER": 1331,
      "wo": 1332,
      "noDB": 1333,
      "ron": 1334,
      "velo": 1335,
      "Ġman": 1336,
      "Ġsum": 1337,
      "OREIGN": 1338,
      "Ġcross": 1339,
      "-','": 1340,
      "ange": 1341,
      "vice": 1342,
      "be": 1343,
      "IC": 1344,
      "OM": 1345,
      "hed": 1346,
      "ution": 1347,
      "Name": 1348,
      "ump": 1349,
      "ĠDELETE": 1350,
      "IK": 1351,
      "otal": 1352,
      "mod": 1353,
      "Ġgr": 1354,
      "Ġdid": 1355,
      "LEARN": 1356,
      ".[": 1357,
      "ited": 1358,
      "ages": 1359,
      "med": 1360,
      "Kode": 1361,
      "PECT": 1362,
      ".',": 1363,
      "image": 1364,
      "Ġpostnummer": 1365,
      "Kommune": 1366,
      "NER": 1367,
      "KommuneKode": 1368,
      "eek": 1369,
      "Postnummer": 1370,
      "Poststed": 1371,
      "ĠCHARSET": 1372,
      "ĠPro": 1373,
      "Ġsur": 1374,
      "Ġstructure": 1375,
      "ĠEXPECT": 1376,
      "Ġunder": 1377,
      "aving": 1378,
      "lt": 1379,
      "round": 1380,
      "verage": 1381,
      "ĠâĢľ": 1382,
      "ROSS": 1383,
      "ĠĠĠĠĠĠĠĠĠĠĠĠĠĠĠĠĠĠĠĠĠĠĠĠĠĠĠĠĠĠĠĠĠĠĠĠĠĠĠĠĠĠĠĠĠĠĠĠĠĠĠĠĠĠĠĠĠĠĠĠĠĠĠĠĠĠĠĠĠĠĠĠĠĠĠĠĠĠĠĠĠĠĠĠĠĠĠĠĠĠĠĠĠĠĠĠĠĠĠĠĠĠĠĠĠĠĠĠĠĠĠĠĠĠĠĠĠĠĠĠĠĠĠĠĠĠĠĠ": 1384,
      "ric": 1385,
      "ĠWho": 1386,
      "Ġjoin": 1387,
      "Ġprov": 1388,
      "uk": 1389,
      "ired": 1390,
      "NAME": 1391,
      "ullif": 1392,
      ")',": 1393,
      "part": 1394,
      "Æ°": 1395,
      "PL": 1396,
      "Ġthem": 1397,
      "Ġyears": 1398,
      "Ġhow": 1399,
      "ÐµÐ": 1400,
      "ugh": 1401,
      "FERE": 1402,
      "land": 1403,
      "Ġpeople": 1404,
      "ger": 1405,
      "AC": 1406,
      "Ġuse": 1407,
      "select": 1408,
      "||": 1409,
      "ATA": 1410,
      "\");": 1411,
      "que": 1412,
      "Ġmed": 1413,
      "FERENCE": 1414,
      "RS": 1415,
      "Ġdif": 1416,
      "cription": 1417,
      "Other": 1418,
      "fter": 1419,
      "urrentLoad": 1420,
      "ays": 1421,
      "pl": 1422,
      "Ġkn": 1423,
      "Qu": 1424,
      "na": 1425,
      "------------": 1426,
      "uid": 1427,
      "','-','": 1428,
      "====": 1429,
      "ari": 1430,
      "Ġwin": 1431,
      "))": 1432,
      "FERENCES": 1433,
      "Ġass": 1434,
      "ulation": 1435,
      "unt": 1436,
      "DENT": 1437,
      "title": 1438,
      "irc": 1439,
      "æĹ": 1440,
      "inct": 1441,
      "ator": 1442,
      "ĠNULLIF": 1443,
      "åľ": 1444,
      "ature": 1445,
      "Ġnullif": 1446,
      "IMAL": 1447,
      "Ph": 1448,
      "Ġ'[": 1449,
      "Ġselect": 1450,
      "region": 1451,
      "Ġact": 1452,
      "fig": 1453,
      "Ġaway": 1454,
      "ĠCROSS": 1455,
      "group": 1456,
      "ĠFOREIGN": 1457,
      "ĠST": 1458,
      "product": 1459,
      "bu": 1460,
      "Ġfloat": 1461,
      "word": 1462,
      "åĲ": 1463,
      "OD": 1464,
      "ado": 1465,
      "work": 1466,
      "Ġ&": 1467,
      "ĠĠĠĠĠĠĠĠĠĠĠ": 1468,
      "wh": 1469,
      "come": 1470,
      "ise": 1471,
      "ier": 1472,
      "velop": 1473,
      "Ġback": 1474,
      "Ġ----------------------------": 1475,
      "ĠREFERENCES": 1476,
      "ween": 1477,
      "ents": 1478,
      "PO": 1479,
      "Ir": 1480,
      "alth": 1481,
      "NED": 1482,
      "Ġtra": 1483,
      "enue": 1484,
      "PERT": 1485,
      "fore": 1486,
      "APP": 1487,
      "Ġschool": 1488,
      "Ġthese": 1489,
      "ĠTEXT": 1490,
      "æĪ": 1491,
      "vo": 1492,
      "der": 1493,
      "ash": 1494,
      "Ġwould": 1495,
      "DROP": 1496,
      "Ġset": 1497,
      "pc": 1498,
      "ily": 1499,
      "TYPE": 1500,
      "]',": 1501,
      "su": 1502,
      "FT": 1503,
      "PROPERT": 1504,
      "Ġadd": 1505,
      "Ġleft": 1506,
      "è®": 1507,
      "nb": 1508,
      "ern": 1509,
      "oy": 1510,
      "></": 1511,
      "ĠInd": 1512,
      "ource": 1513,
      "Ġany": 1514,
      "Ġsmall": 1515,
      "ified": 1516,
      "OO": 1517,
      "--------------------------------": 1518,
      "tern": 1519,
      "ĠÐ¿": 1520,
      "PROPERTY": 1521,
      "ĠThis": 1522,
      "ĠIt": 1523,
      "Ġround": 1524,
      "InnoDB": 1525,
      "LES": 1526,
      "NO": 1527,
      "Ġincl": 1528,
      "{\\\"": 1529,
      "mo": 1530,
      "Ġbetween": 1531,
      "System": 1532,
      "..": 1533,
      "GET": 1534,
      "mit": 1535,
      "IV": 1536,
      "js": 1537,
      "Ac": 1538,
      "points": 1539,
      "roup": 1540,
      "ĠOFF": 1541,
      "Ġlocation": 1542,
      "ium": 1543,
      "Ġcreate": 1544,
      "orld": 1545,
      "search": 1546,
      "miss": 1547,
      "list": 1548,
      "Ġdistinct": 1549,
      "air": 1550,
      "ĠTable": 1551,
      "Ġweek": 1552,
      "cimal": 1553,
      "].[": 1554,
      "ĠINSERT": 1555,
      "Ġlow": 1556,
      "olor": 1557,
      "play": 1558,
      "USER": 1559,
      "urn": 1560,
      "Ġhaving": 1561,
      "yle": 1562,
      "ÑģÑĤ": 1563,
      "Ġcons": 1564,
      "go": 1565,
      "Âł": 1566,
      "ious": 1567,
      "du": 1568,
      "rough": 1569,
      "ility": 1570,
      "BE": 1571,
      "}',": 1572,
      "very": 1573,
      "total": 1574,
      "DO": 1575,
      "Ġend": 1576,
      "pre": 1577,
      "Ġent": 1578,
      "https": 1579,
      "Ġvenue": 1580,
      "Ġcom": 1581,
      "Ġsub": 1582,
      "ĠHe": 1583,
      "cal": 1584,
      "trans": 1585,
      "Ġob": 1586,
      "employ": 1587,
      "ism": 1588,
      "ownload": 1589,
      "Ġsuch": 1590,
      "des": 1591,
      "ample": 1592,
      "indow": 1593,
      "ble": 1594,
      "æĺ": 1595,
      "Ð°Ð": 1596,
      "hl": 1597,
      "Ġonly": 1598,
      "ews": 1599,
      "my": 1600,
      "Ġtwo": 1601,
      "Nice": 1602,
      "gra": 1603,
      "Ġeff": 1604,
      "Ġfe": 1605,
      "igned": 1606,
      "ĠĠĠĠĠĠ": 1607,
      "ISTIN": 1608,
      "')": 1609,
      "mon": 1610,
      "ĠDate": 1611,
      "Ġexists": 1612,
      "dated": 1613,
      "Idle": 1614,
      "Ġpop": 1615,
      "sk": 1616,
      "Ġtrans": 1617,
      "IO": 1618,
      "Irq": 1619,
      "vers": 1620,
      "ae": 1621,
      "ines": 1622,
      "ISTINCT": 1623,
      "table": 1624,
      "TIMESTAMP": 1625,
      "Ġsystem": 1626,
      "umn": 1627,
      "UT": 1628,
      "ĠRe": 1629,
      "Ġaverage": 1630,
      "Type": 1631,
      "olean": 1632,
      "uring": 1633,
      "IGINT": 1634,
      "Ġam": 1635,
      "odel": 1636,
      "ç»": 1637,
      "Ġexp": 1638,
      "river": 1639,
      "ĠLE": 1640,
      "WRS": 1641,
      "ĠTO": 1642,
      "','/": 1643,
      "regions": 1644,
      "ina": 1645,
      "Ġdecimal": 1646,
      "rict": 1647,
      "QL": 1648,
      "level": 1649,
      "ider": 1650,
      "{\"": 1651,
      "ake": 1652,
      "Ġneed": 1653,
      "Ġthen": 1654,
      "Ġpri": 1655,
      "Ġstate": 1656,
      "system": 1657,
      "Ġrel": 1658,
      "Un": 1659,
      "Sh": 1660,
      "°å": 1661,
      "ident": 1662,
      "class": 1663,
      "null": 1664,
      "IKE": 1665,
      "Ġbu": 1666,
      "=@": 1667,
      "Ġour": 1668,
      "ased": 1669,
      "Ġdoes": 1670,
      "ÑĮ": 1671,
      "åĬ": 1672,
      "Ġplace": 1673,
      "Ġavg": 1674,
      "Ġdevelop": 1675,
      "its": 1676,
      "ED": 1677,
      "WS": 1678,
      "Ñĩ": 1679,
      "IGHT": 1680,
      "imp": 1681,
      "è¡": 1682,
      "www": 1683,
      "mat": 1684,
      "requ": 1685,
      "ward": 1686,
      "ince": 1687,
      "à¦": 1688,
      "Co": 1689,
      "UDENT": 1690,
      "Ġdirect": 1691,
      "ries": 1692,
      "nh": 1693,
      "nament": 1694,
      "Ġ/": 1695,
      "ower": 1696,
      "Ġdiffer": 1697,
      "ĠDATE": 1698,
      "atient": 1699,
      "iversity": 1700,
      "score": 1701,
      "::": 1702,
      "ara": 1703,
      "è¯": 1704,
      "Ġthrough": 1705,
      "ournament": 1706,
      "nbsp": 1707,
      "not": 1708,
      "Ġtype": 1709,
      "umb": 1710,
      "ets": 1711,
      "general": 1712,
      "ĠBIGINT": 1713,
      "Ġlong": 1714,
      "ĠÄ": 1715,
      "iginal": 1716,
      "ases": 1717,
      "chema": 1718,
      "AVING": 1719,
      "ĠDROP": 1720,
      "educ": 1721,
      "CIMAL": 1722,
      "Ġchild": 1723,
      "GB": 1724,
      "CON": 1725,
      "auth": 1726,
      "ä½": 1727,
      "ĠEXPECTATION": 1728,
      "pen": 1729,
      "LA": 1730,
      "Ġcar": 1731,
      "ALES": 1732,
      "Ġinsert": 1733,
      "uch": 1734,
      "Ġagainst": 1735,
      "Ġevent": 1736,
      "Ġlarg": 1737,
      "Ġboolean": 1738,
      "ĠOFFSET": 1739,
      "index": 1740,
      "tt": 1741,
      "order": 1742,
      "ough": 1743,
      "Ġcharacter": 1744,
      "duc": 1745,
      "éĹ": 1746,
      "logy": 1747,
      "wn": 1748,
      "YY": 1749,
      "formation": 1750,
      "NS": 1751,
      "ALESCE": 1752,
      "Ġcast": 1753,
      "ground": 1754,
      "oud": 1755,
      "Ġ''),": 1756,
      "ICAgICAgICAgICAg": 1757,
      "tbl": 1758,
      "ices": 1759,
      "Ġafter": 1760,
      "Ġtitle": 1761,
      "err": 1762,
      "Ġupdate": 1763,
      "Ġz": 1764,
      "ane": 1765,
      "LEAN": 1766,
      "finition": 1767,
      "cs": 1768,
      "LOAT": 1769,
      "cur": 1770,
      "oh": 1771,
      "ton": 1772,
      "ĠÑģ": 1773,
      "Ġpol": 1774,
      "Ġel": 1775,
      "ĠDISTINCT": 1776,
      "gt": 1777,
      "Ġconse": 1778,
      "resent": 1779,
      "ude": 1780,
      "Ġdrop": 1781,
      "off": 1782,
      "','',": 1783,
      "OOLEAN": 1784,
      "lege": 1785,
      "********": 1786,
      "ips": 1787,
      "Ġinte": 1788,
      "alesce": 1789,
      "Ð½Ð¸": 1790,
      "App": 1791,
      "å±": 1792,
      "ants": 1793,
      "stit": 1794,
      "ĠTIMESTAMP": 1795,
      "ung": 1796,
      "è¿": 1797,
      "unction": 1798,
      "ĠLIKE": 1799,
      "Ġdelete": 1800,
      "Mary": 1801,
      "ĠDECIMAL": 1802,
      "UTER": 1803,
      "ĠIS": 1804,
      "Æ°á»": 1805,
      "Ġunion": 1806,
      "lp": 1807,
      "gy": 1808,
      "arn": 1809,
      "Ġwater": 1810,
      ">>": 1811,
      "ĠX": 1812,
      "met": 1813,
      "ĠHAVING": 1814,
      "Ġalter": 1815,
      "Ð¾Ð²": 1816,
      "yl": 1817,
      "\\\">": 1818,
      "ural": 1819,
      "Ø±": 1820,
      "ĠUS": 1821,
      "ann": 1822,
      "test": 1823,
      "IR": 1824,
      "agra": 1825,
      "Ġelect": 1826,
      "Ġdi": 1827,
      "ĠAr": 1828,
      "sel": 1829,
      "çľ": 1830,
      "day": 1831,
      "sub": 1832,
      "GO": 1833,
      "åŃ": 1834,
      "roll": 1835,
      "Ġstyle": 1836,
      "Ġcity": 1837,
      "temp": 1838,
      "uper": 1839,
      "yp": 1840,
      "Ġeven": 1841,
      "meric": 1842,
      "lob": 1843,
      "Ġep": 1844,
      "Ġshould": 1845,
      "update": 1846,
      "ĠSB": 1847,
      "ĠAl": 1848,
      "Ġcap": 1849,
      "DEX": 1850,
      "email": 1851,
      "fault": 1852,
      "struct": 1853,
      "oj": 1854,
      "def": 1855,
      "Ġinner": 1856,
      "af": 1857,
      "REST": 1858,
      "angu": 1859,
      "ract": 1860,
      "ĠFLOAT": 1861,
      "ĠCOALESCE": 1862,
      "td": 1863,
      "CTION": 1864,
      "Ġart": 1865,
      "OS": 1866,
      "LAST": 1867,
      "Ġcent": 1868,
      "Ġfound": 1869,
      "ĠDe": 1870,
      "arent": 1871,
      "ADD": 1872,
      "OLD": 1873,
      "px": 1874,
      "sw": 1875,
      "port": 1876,
      "Ġsupp": 1877,
      "Ġmon": 1878,
      "action": 1879,
      "Ã¡": 1880,
      "Ġ------------------------------------------------": 1881,
      "æ²": 1882,
      "ĠÐ²": 1883,
      "ek": 1884,
      "ves": 1885,
      "red": 1886,
      "value": 1887,
      "ĠBOOLEAN": 1888,
      "alent": 1889,
      "AF": 1890,
      "dbo": 1891,
      "Ġgroup": 1892,
      "Ġattendance": 1893,
      "ĠINNER": 1894,
      "lu": 1895,
      "æĶ": 1896,
      "Ġeng": 1897,
      "win": 1898,
      "ĠLEFT": 1899,
      "Ġouter": 1900,
      "pur": 1901,
      "ĠCon": 1902,
      "Ġ+": 1903,
      "abel": 1904,
      "ĠFor": 1905,
      "rank": 1906,
      "gin": 1907,
      "Ġrun": 1908,
      "ĠUNION": 1909,
      "åº": 1910,
      "ama": 1911,
      "Ġcoalesce": 1912,
      "Ġpr": 1913,
      "ĠSE": 1914,
      "Ġuns": 1915,
      "rol": 1916,
      "ET": 1917,
      "field": 1918,
      "éĻ": 1919,
      "Ġoffset": 1920,
      "mm": 1921,
      "ĠRIGHT": 1922,
      "ĠWhen": 1923,
      "ilver": 1924,
      "ety": 1925,
      "Ġinf": 1926,
      "wner": 1927,
      "ĠSh": 1928,
      "ĠOUTER": 1929,
      "Ġret": 1930,
      "HA": 1931,
      "cond": 1932,
      "Ġget": 1933,
      "ustomer": 1934,
      "lish": 1935,
      "net": 1936,
      "Ġca": 1937,
      "BA": 1938,
      "EA": 1939,
      "isit": 1940,
      "ãĢĤ": 1941,
      "ĠPh": 1942,
      "line": 1943,
      "å¼": 1944,
      "Ġear": 1945,
      "file": 1946,
      "Ġtest": 1947,
      "vol": 1948,
      "orn": 1949,
      "PTION": 1950,
      "ĠCo": 1951,
      "MM": 1952,
      "Ġsit": 1953,
      "Ġsign": 1954,
      "au": 1955,
      "Ġplayed": 1956,
      "Ġcould": 1957,
      "orth": 1958,
      "ually": 1959,
      "=\"": 1960,
      "ever": 1961,
      "yd": 1962,
      ",$": 1963,
      "face": 1964,
      "ior": 1965,
      "ĠBible": 1966,
      "ĠINDEX": 1967,
      "pola": 1968,
      "___": 1969,
      "amily": 1970,
      "cloud": 1971,
      "ãĥ": 1972,
      "Ġwell": 1973,
      "fic": 1974,
      "roid": 1975,
      "ran": 1976,
      "ital": 1977,
      "Ġext": 1978,
      "Ġwrit": 1979,
      "ÙĦ": 1980,
      "LC": 1981,
      "Ġseason": 1982,
      "å¿": 1983,
      "ful": 1984,
      "PA": 1985,
      "},": 1986,
      "ask": 1987,
      "education": 1988,
      "az": 1989,
      "Ġspeci": 1990,
      "outh": 1991,
      "éĢ": 1992,
      "clo": 1993,
      "dis": 1994,
      "Ġter": 1995,
      "Ġche": 1996,
      "ency": 1997,
      "job": 1998,
      "Ã¤": 1999,
      "Ġgre": 2000,
      "\".\"": 2001,
      "`;": 2002,
      "Download": 2003,
      "peri": 2004,
      "éĩ": 2005,
      "Ġdatetime": 2006,
      "Ġcal": 2007,
      "BD": 2008,
      "Ñħ": 2009,
      "vir": 2010,
      "etur": 2011,
      "ãĤ": 2012,
      "Ġpo": 2013,
      "ĠType": 2014,
      "çľģ": 2015,
      "Ã©": 2016,
      "ference": 2017,
      "FROM": 2018,
      "ĉĉĉ": 2019,
      "org": 2020,
      "used": 2021,
      "Ġdec": 2022,
      "Date": 2023,
      "fs": 2024,
      "Ġworld": 2025,
      "acute": 2026,
      "ĠAnd": 2027,
      "isode": 2028,
      "ĠTe": 2029,
      "Ġher": 2030,
      "JE": 2031,
      "Ġinclud": 2032,
      "bd": 2033,
      "Ġ(\"": 2034,
      "vern": 2035,
      "ĠMar": 2036,
      "Ġjust": 2037,
      "position": 2038,
      "employee": 2039,
      "Ġconsect": 2040,
      "DATA": 2041,
      "Ġsk": 2042,
      "AWS": 2043,
      "amin": 2044,
      "leted": 2045,
      "Ġconsectetur": 2046,
      "pect": 2047,
      "Ġkey": 2048,
      "ĠAn": 2049,
      "uman": 2050,
      "where": 2051,
      "cu": 2052,
      "ho": 2053,
      "post": 2054,
      "gs": 2055,
      "shorts": 2056,
      "AAAAAAAA": 2057,
      "ĠBibleDownload": 2058,
      "shortsands": 2059,
      "Ġlarger": 2060,
      "ĠAmeric": 2061,
      "ga": 2062,
      "ove": 2063,
      "SCRI": 2064,
      "Ġmake": 2065,
      "ody": 2066,
      "Ġloss": 2067,
      "Ġresearch": 2068,
      "çĶ¨": 2069,
      "ARK": 2070,
      "OB": 2071,
      "pend": 2072,
      "oci": 2073,
      "ĠSe": 2074,
      "Ġorder": 2075,
      "Ġlast": 2076,
      "mission": 2077,
      "anguage": 2078,
      "SCRIPTION": 2079,
      "ĠDump": 2080,
      "Ġarea": 2081,
      "FC": 2082,
      "thod": 2083,
      "NC": 2084,
      "ĠĠĠĠĠĠĠĠĠĠĠĠĠĠĠ": 2085,
      "istory": 2086,
      "EE": 2087,
      "ral": 2088,
      "illion": 2089,
      "Ġ--------------------------------------------------------": 2090,
      "Ġinformation": 2091,
      "ird": 2092,
      "æľº": 2093,
      "attr": 2094,
      "Ġest": 2095,
      "oper": 2096,
      "peg": 2097,
      "Ġmet": 2098,
      "bin": 2099,
      "Ġim": 2100,
      "éĥ": 2101,
      "hest": 2102,
      "BER": 2103,
      "iny": 2104,
      "ished": 2105,
      "`(": 2106,
      "Ġinc": 2107,
      "atal": 2108,
      "utes": 2109,
      "Ġind": 2110,
      "hes": 2111,
      "ĠUniversity": 2112,
      "Ad": 2113,
      "Ġ$": 2114,
      "ences": 2115,
      "ala": 2116,
      "ization": 2117,
      "Ġbeing": 2118,
      "MP": 2119,
      "Ġmod": 2120,
      "attendance": 2121,
      "Ġthose": 2122,
      "Ð¼": 2123,
      "Ġknow": 2124,
      "Ġdraw": 2125,
      "IP": 2126,
      "Ġunsigned": 2127,
      "Ġhelp": 2128,
      "Ġsaid": 2129,
      "SIG": 2130,
      "ique": 2131,
      "lock": 2132,
      "get": 2133,
      "Ġlead": 2134,
      ")','": 2135,
      "NH": 2136,
      "Ġtalent": 2137,
      "fo": 2138,
      "ollow": 2139,
      "æľ¬": 2140,
      "æ±": 2141,
      "Ġdifferent": 2142,
      "DESCRIPTION": 2143,
      "VB": 2144,
      "Ġshow": 2145,
      "Ùħ": 2146,
      "æķ": 2147,
      "seq": 2148,
      "Ġmade": 2149,
      "GU": 2150,
      "DA": 2151,
      "ebru": 2152,
      "Ġbefore": 2153,
      "ather": 2154,
      "ĠâĢĵ": 2155,
      "ä¿": 2156,
      "ebruary": 2157,
      "Ġword": 2158,
      "Ġeach": 2159,
      "PK": 2160,
      "Ġuser": 2161,
      "ä»¶": 2162,
      "ĠSchema": 2163,
      "modified": 2164,
      "IQUE": 2165,
      "ars": 2166,
      "iles": 2167,
      "Ġair": 2168,
      "cer": 2169,
      "Ġstart": 2170,
      "Ġtech": 2171,
      "Ġpick": 2172,
      "Ġexcept": 2173,
      "åĨ": 2174,
      "centage": 2175,
      "from": 2176,
      "ĠIf": 2177,
      "ify": 2178,
      "UB": 2179,
      "Ġoriginal": 2180,
      "ĠUNSIG": 2181,
      "ĠUNSIGNED": 2182,
      "Cons": 2183,
      "ighest": 2184,
      "etail": 2185,
      "CZ": 2186,
      "Ġrequ": 2187,
      "De": 2188,
      "ĠOwner": 2189,
      "users": 2190,
      "Ġview": 2191,
      "HP": 2192,
      "Ġgoals": 2193,
      "\")": 2194,
      "BB": 2195,
      "ĠSTUDENT": 2196,
      "EF": 2197,
      "ches": 2198,
      "uf": 2199,
      "Ġ)": 2200,
      "loc": 2201,
      "MO": 2202,
      "Ġsee": 2203,
      "cd": 2204,
      "Ġauth": 2205,
      "æĿ": 2206,
      "ĠÄĳ": 2207,
      "png": 2208,
      "ĠØ": 2209,
      "ART": 2210,
      "Ġduring": 2211,
      "Ġpartic": 2212,
      "Ġtalentcloud": 2213,
      "cause": 2214,
      "ats": 2215,
      "Ġ'[\\\"": 2216,
      "æµ": 2217,
      "venue": 2218,
      "åįĹ": 2219,
      "ailable": 2220,
      "Ġsc": 2221,
      "ification": 2222,
      "fk": 2223,
      "Ġtournament": 2224,
      "Ġway": 2225,
      "aws": 2226,
      "ä¹": 2227,
      "Ð´": 2228,
      "ically": 2229,
      "CC": 2230,
      "LCJ": 2231,
      "size": 2232,
      "ized": 2233,
      "ense": 2234,
      "Ġfin": 2235,
      "CAST": 2236,
      "Ġimport": 2237,
      "Ãł": 2238,
      "Ġbackground": 2239,
      "åĽ": 2240,
      "ures": 2241,
      "Ġsame": 2242,
      "late": 2243,
      "Ġbecause": 2244,
      "last": 2245,
      "Ġmuch": 2246,
      "ting": 2247,
      "Ġho": 2248,
      "img": 2249,
      "Ex": 2250,
      "Ġdolor": 2251,
      "Ġsy": 2252,
      "Ġpopulation": 2253,
      "Ġinit": 2254,
      "Ġincre": 2255,
      "\"),": 2256,
      "ĠÐ½": 2257,
      "category": 2258,
      "serv": 2259,
      "atin": 2260,
      "Ġunt": 2261,
      "item": 2262,
      "Ġcour": 2263,
      "ao": 2264,
      "Ġbr": 2265,
      "assword": 2266,
      "ĠRes": 2267,
      "gmail": 2268,
      "Ġpar": 2269,
      "data": 2270,
      "ray": 2271,
      "Ġsmaller": 2272,
      ")\"": 2273,
      "Ġhighest": 2274,
      "CurrentLoad": 2275,
      "currentLoad": 2276,
      "rawCurrentLoad": 2277,
      "??": 2278,
      "eng": 2279,
      "Console": 2280,
      "ally": 2281,
      "ero": 2282,
      "($": 2283,
      "ÙĪ": 2284,
      "Ġevery": 2285,
      "timestamp": 2286,
      "Ġtemp": 2287,
      "Ġtop": 2288,
      "main": 2289,
      "ware": 2290,
      "ret": 2291,
      "ãĢģ": 2292,
      "Ġprocess": 2293,
      "arge": 2294,
      "Ġ'/": 2295,
      "ids": 2296,
      "lement": 2297,
      "istics": 2298,
      "Ġcurrent": 2299,
      "Ġvery": 2300,
      "Ð¾Ð´": 2301,
      "MA": 2302,
      "ĠNew": 2303,
      "etition": 2304,
      "Ġfact": 2305,
      "ĠZ": 2306,
      "WA": 2307,
      "Ġdistrict": 2308,
      "])": 2309,
      "ql": 2310,
      "Ġnational": 2311,
      "updated": 2312,
      "sc": 2313,
      "Ġpower": 2314,
      "Al": 2315,
      "å°": 2316,
      "ris": 2317,
      "ĠIs": 2318,
      "Ġinteger": 2319,
      "other": 2320,
      "Ġfunction": 2321,
      "lease": 2322,
      "ka": 2323,
      "','[": 2324,
      "Ġmodel": 2325,
      "strong": 2326,
      "GR": 2327,
      "erman": 2328,
      "EX": 2329,
      "Ġ_": 2330,
      "ĿĢ": 2331,
      "erry": 2332,
      "ml": 2333,
      "Ġsci": 2334,
      "ague": 2335,
      "ĠSer": 2336,
      "Ġepisode": 2337,
      "ĠDumping": 2338,
      "mes": 2339,
      "inu": 2340,
      "CHE": 2341,
      "Ã¢": 2342,
      "OE": 2343,
      "TR": 2344,
      "iver": 2345,
      "read": 2346,
      "ROUP": 2347,
      "viron": 2348,
      "hljs": 2349,
      "Ġmy": 2350,
      "Ġcell": 2351,
      "Ġform": 2352,
      "game": 2353,
      "Ġhealth": 2354,
      "'t": 2355,
      "å¹": 2356,
      "ality": 2357,
      "Ġgold": 2358,
      "idd": 2359,
      "áº¡": 2360,
      "lag": 2361,
      "Reg": 2362,
      "rain": 2363,
      "uss": 2364,
      "aking": 2365,
      "FK": 2366,
      "Ġdiv": 2367,
      "less": 2368,
      "eter": 2369,
      "ronze": 2370,
      "æĺ¯": 2371,
      "Ġday": 2372,
      "ODIF": 2373,
      "son": 2374,
      "first": 2375,
      "Ġperson": 2376,
      "Ġusing": 2377,
      "bb": 2378,
      "ersion": 2379,
      "ĠLe": 2380,
      "ness": 2381,
      "Æ°á»Ŀ": 2382,
      "FOR": 2383,
      "address": 2384,
      "car": 2385,
      "Ġcollege": 2386,
      "An": 2387,
      "Ð¾ÑĢ": 2388,
      "Ġcor": 2389,
      "ĠAs": 2390,
      "km": 2391,
      "site": 2392,
      "\":\"": 2393,
      "ä¸Ń": 2394,
      "Point": 2395,
      "Wh": 2396,
      "`);": 2397,
      "raft": 2398,
      "Ġlist": 2399,
      "ock": 2400,
      "LL": 2401,
      "df": 2402,
      "Ġshe": 2403,
      "ĠInt": 2404,
      "Ġprogra": 2405,
      "åľ°å": 2406,
      "atalog": 2407,
      "aj": 2408,
      "gu": 2409,
      "ĠĠĠĠĠĠĠĠĠĠĠĠĠĠĠĠĠĠĠĠĠĠĠĠĠĠĠĠĠĠĠĠĠĠĠĠĠĠĠĠĠĠĠĠĠĠĠĠĠĠĠĠĠĠĠĠĠĠĠĠĠĠĠĠĠĠĠĠĠĠĠĠĠĠĠĠĠĠĠĠĠĠĠĠĠĠĠĠĠĠĠĠĠĠĠĠĠĠĠĠĠĠĠĠĠĠĠĠĠĠĠĠĠĠĠĠĠĠĠĠĠĠĠĠĠĠĠĠĠĠĠĠĠĠĠĠĠĠĠĠĠĠĠĠĠĠĠĠĠĠĠĠĠĠĠĠĠĠĠĠĠĠĠĠĠĠĠĠĠĠĠĠĠĠĠĠĠĠĠĠĠĠĠĠĠĠĠĠĠĠĠĠĠĠĠĠĠĠĠĠĠĠĠĠĠĠĠĠĠĠĠĠĠĠĠĠĠĠĠĠĠĠĠĠĠĠĠĠĠĠĠĠĠĠĠĠĠĠĠĠĠĠĠĠĠĠĠĠĠĠĠĠĠĠĠĠ": 2410,
      "REE": 2411,
      "Ġprote": 2412,
      "Ġseries": 2413,
      "Ġlife": 2414,
      ".</": 2415,
      "HEN": 2416,
      "elect": 2417,
      "Ġwins": 2418,
      "ivity": 2419,
      "Ġtiny": 2420,
      "ĠNO": 2421,
      "Ġdriver": 2422,
      "ury": 2423,
      "Ġlevel": 2424,
      "RES": 2425,
      "Ġfollow": 2426,
      "Ġins": 2427,
      "SN": 2428,
      "Ġfinal": 2429,
      "CHARACTER": 2430,
      "vis": 2431,
      "MS": 2432,
      "contact": 2433,
      "omen": 2434,
      "ted": 2435,
      "va": 2436,
      "========": 2437,
      "Sub": 2438,
      "Ġmole": 2439,
      "lobal": 2440,
      "column": 2441,
      "åľ°åĿĢ": 2442,
      "FB": 2443,
      "Ġke": 2444,
      "ores": 2445,
      "ĠYear": 2446,
      "dail": 2447,
      "ĠUNIQUE": 2448,
      "Ġequ": 2449,
      "ws": 2450,
      "voice": 2451,
      "Ġvalue": 2452,
      "åĩ": 2453,
      "Ġocc": 2454,
      "rome": 2455,
      "å¾": 2456,
      "Up": 2457,
      "ilt": 2458,
      "As": 2459,
      "MR": 2460,
      "Ġorgan": 2461,
      "Cont": 2462,
      "ional": 2463,
      "KT": 2464,
      "\",\"\",\"\",\"\",\"": 2465,
      "phone": 2466,
      "ĠCAS": 2467,
      ":{": 2468,
      "ĠÐ¸": 2469,
      "Øª": 2470,
      "CADE": 2471,
      "ÐµÑĢ": 2472,
      "club": 2473,
      "Sp": 2474,
      ".,": 2475,
      "aa": 2476,
      "Ġproble": 2477,
      "Ġ{": 2478,
      "HTM": 2479,
      "CH": 2480,
      "Ġclub": 2481,
      "Active": 2482,
      "alle": 2483,
      "ober": 2484,
      "Ġnow": 2485,
      "ving": 2486,
      "Ġreport": 2487,
      "mark": 2488,
      "ule": 2489,
      "Ġchildren": 2490,
      "á»ĩ": 2491,
      "Ġboth": 2492,
      "Category": 2493,
      "Ġtreat": 2494,
      "Ġfind": 2495,
      "high": 2496,
      "ndPoint": 2497,
      "Ġbuild": 2498,
      "LY": 2499,
      "Ġown": 2500,
      "Ġread": 2501,
      "emp": 2502,
      "tx": 2503,
      "æĪĲ": 2504,
      "uro": 2505,
      "è´": 2506,
      "Ġsol": 2507,
      "ship": 2508,
      "Ġinitial": 2509,
      "ĠBYTE": 2510,
      "icle": 2511,
      "IMS": 2512,
      ";&": 2513,
      "VBIA": 2514,
      "ada": 2515,
      "Ã¶": 2516,
      "So": 2517,
      "SQL": 2518,
      "ives": 2519,
      "indows": 2520,
      "ĠCASCADE": 2521,
      "super": 2522,
      "hip": 2523,
      "Ġproduction": 2524,
      "ote": 2525,
      "UD": 2526,
      "Ġgovern": 2527,
      "Ġstudents": 2528,
      "VE": 2529,
      "USD": 2530,
      "ories": 2531,
      "ĠÐº": 2532,
      "ards": 2533,
      "\\\\/": 2534,
      "ios": 2535,
      "Ġ([": 2536,
      "oo": 2537,
      "ks": 2538,
      "atic": 2539,
      "ĠOn": 2540,
      "stand": 2541,
      "da": 2542,
      "Ġsurface": 2543,
      "Ġstudy": 2544,
      "irth": 2545,
      "umbent": 2546,
      "ÑĨ": 2547,
      "Ġsilver": 2548,
      "lut": 2549,
      "arm": 2550,
      "rad": 2551,
      "Ġlaps": 2552,
      "CLAR": 2553,
      "vironment": 2554,
      "state": 2555,
      "æĹ¶": 2556,
      "ĠBal": 2557,
      "æĸĩ": 2558,
      "Ġvisit": 2559,
      "cf": 2560,
      "lear": 2561,
      "(*": 2562,
      "AE": 2563,
      "Ġpla": 2564,
      "FORM": 2565,
      "mary": 2566,
      "Ġfl": 2567,
      "Pune": 2568,
      "tax": 2569,
      "Ð½Ñĭ": 2570,
      "ĠDATEADD": 2571,
      "oid": 2572,
      "Ġmatch": 2573,
      "JECT": 2574,
      "æī": 2575,
      "result": 2576,
      "Ġthree": 2577,
      "Ð¿": 2578,
      "SO": 2579,
      "ç½": 2580,
      "lex": 2581,
      "Ġbook": 2582,
      "ides": 2583,
      "COMMENT": 2584,
      "ĠKEYS": 2585,
      "rist": 2586,
      "Ð»Ð¸": 2587,
      "Ð¾Ð»": 2588,
      "ls": 2589,
      "QU": 2590,
      "Ġmat": 2591,
      "illa": 2592,
      "='": 2593,
      "rx": 2594,
      "å·ŀ": 2595,
      "Æ°á»Ŀng": 2596,
      "Ġvol": 2597,
      "mi": 2598,
      "Ġfac": 2599,
      "ngth": 2600,
      "Ã³": 2601,
      "upload": 2602,
      "DF": 2603,
      "Ġu": 2604,
      "ential": 2605,
      "Ġlit": 2606,
      "ĠWe": 2607,
      "Ġbronze": 2608,
      "æľºåľ°åĿĢ": 2609,
      "ynews": 2610,
      "Ġopen": 2611,
      "dailynews": 2612,
      "valu": 2613,
      "æľ¬æľºåľ°åĿĢ": 2614,
      "ĠThey": 2615,
      "çĻ": 2616,
      "api": 2617,
      "Ġposs": 2618,
      "\\''),": 2619,
      "ĠUSING": 2620,
      "DI": 2621,
      "('\\'": 2622,
      "½ķ": 2623,
      "Ġimportant": 2624,
      "ergy": 2625,
      "ĠCl": 2626,
      "ey": 2627,
      "Ġbro": 2628,
      "aved": 2629,
      "Ð¾Ð¼": 2630,
      "ĠRO": 2631,
      "shop": 2632,
      "Local": 2633,
      "ĠEng": 2634,
      "record": 2635,
      "IENT": 2636,
      "LOCK": 2637,
      "çł": 2638,
      "Ġtinyint": 2639,
      "ih": 2640,
      "rand": 2641,
      "orem": 2642,
      "Ġste": 2643,
      "ĠSBR": 2644,
      "èĩ": 2645,
      "æķ°": 2646,
      "antity": 2647,
      "Ġtab": 2648,
      "Ġnation": 2649,
      "creen": 2650,
      "New": 2651,
      "RY": 2652,
      "open": 2653,
      "ources": 2654,
      "FI": 2655,
      "Ġengine": 2656,
      "put": 2657,
      "oun": 2658,
      "Ġdise": 2659,
      "ĠQu": 2660,
      "Ġgrid": 2661,
      "Ġhim": 2662,
      "urs": 2663,
      "aterial": 2664,
      "Start": 2665,
      "over": 2666,
      "alse": 2667,
      "Ġproject": 2668,
      "Ġbre": 2669,
      "ä¸Ģ": 2670,
      "å±±": 2671,
      "wp": 2672,
      "è¾": 2673,
      "ĠMay": 2674,
      "ĠGe": 2675,
      "uccess": 2676,
      "Ġlowest": 2677,
      "Ġgood": 2678,
      "lication": 2679,
      "fl": 2680,
      "back": 2681,
      "Ġmust": 2682,
      "ler": 2683,
      "Int": 2684,
      "æĢ": 2685,
      "Tr": 2686,
      "Ġcall": 2687,
      "Is": 2688,
      "ohn": 2689,
      "Ġgrow": 2690,
      "cap": 2691,
      "(*)": 2692,
      "YN": 2693,
      "ipp": 2694,
      "nect": 2695,
      "ÙĨ": 2696,
      "ĠCol": 2697,
      "IONS": 2698,
      "è¡¨": 2699,
      "home": 2700,
      "Ġaff": 2701,
      "oney": 2702,
      "åıĳ": 2703,
      "cb": 2704,
      "ĠTo": 2705,
      "Ġgreater": 2706,
      "mov": 2707,
      "ĠCan": 2708,
      "Ġfew": 2709,
      "lack": 2710,
      "xx": 2711,
      "BC": 2712,
      "SEQ": 2713,
      "Ġnor": 2714,
      "IES": 2715,
      "åįķ": 2716,
      "Or": 2717,
      "ç³": 2718,
      "ender": 2719,
      "definition": 2720,
      "çī": 2721,
      "raph": 2722,
      "Ġoper": 2723,
      "Ġlook": 2724,
      "ÃŃ": 2725,
      "price": 2726,
      "duce": 2727,
      "ingle": 2728,
      "ĠJan": 2729,
      "AGE": 2730,
      "PS": 2731,
      "dict": 2732,
      "ians": 2733,
      "Ġcommon": 2734,
      "ç³»": 2735,
      "ĠRec": 2736,
      "Æ¡": 2737,
      "åķ": 2738,
      "ĠMODIF": 2739,
      "ration": 2740,
      "color": 2741,
      "DECLAR": 2742,
      "gency": 2743,
      "aff": 2744,
      "ç§": 2745,
      "CEPT": 2746,
      "oe": 2747,
      "è¥": 2748,
      "xf": 2749,
      "Ø¯": 2750,
      "ÐµÐ½": 2751,
      "Ġhuman": 2752,
      "Regular": 2753,
      "Ġgreat": 2754,
      "Ġcome": 2755,
      "iet": 2756,
      "ref": 2757,
      "Ġpatient": 2758,
      "ours": 2759,
      "Ġ#": 2760,
      "aster": 2761,
      "cr": 2762,
      "DC": 2763,
      "ĠDateTime": 2764,
      "ÙĬ": 2765,
      "Ġwhile": 2766,
      "sd": 2767,
      "zip": 2768,
      "Ġeffect": 2769,
      "error": 2770,
      "thers": 2771,
      "Ġes": 2772,
      "ãĢĲ": 2773,
      "ãĢĳ": 2774,
      "description": 2775,
      "ĠĠĠĠĠĠĠĠĠĠ": 2776,
      "æ±Ł": 2777,
      "ĠÐ´": 2778,
      "hd": 2779,
      "rid": 2780,
      "query": 2781,
      "ÑģÐº": 2782,
      "len": 2783,
      "iversal": 2784,
      "Ġmethod": 2785,
      "location": 2786,
      "ugg": 2787,
      "bG": 2788,
      "login": 2789,
      "Ġmonth": 2790,
      "GIN": 2791,
      "âĢĶ": 2792,
      "Ġoffic": 2793,
      "enter": 2794,
      "','[]',": 2795,
      "gb": 2796,
      "osph": 2797,
      "ERS": 2798,
      "ï¼ļ": 2799,
      "Jerry": 2800,
      "ĠččĊ": 2801,
      "Ġoften": 2802,
      "Ġwinning": 2803,
      "è¥¿": 2804,
      "UMBER": 2805,
      "ä¼": 2806,
      "éĺ": 2807,
      "PY": 2808,
      "Ġresp": 2809,
      "Ġlost": 2810,
      "superadmin": 2811,
      "åĨħ": 2812,
      "Ġcond": 2813,
      "Ġwithout": 2814,
      "Ġamount": 2815,
      "run": 2816,
      "Ġmark": 2817,
      "osop": 2818,
      "Ġexample": 2819,
      "right": 2820,
      "Ġant": 2821,
      "box": 2822,
      "Admin": 2823,
      "Ġcontrol": 2824,
      "cing": 2825,
      "ota": 2826,
      "Ġet": 2827,
      "LINE": 2828,
      "omin": 2829,
      ".âĢĿ": 2830,
      "ling": 2831,
      "Ġdown": 2832,
      "ANS": 2833,
      "ha": 2834,
      "Ġcare": 2835,
      "edit": 2836,
      "Ġlarge": 2837,
      "roller": 2838,
      "bre": 2839,
      "place": 2840,
      "ister": 2841,
      "Ġcirc": 2842,
      "Ġcalled": 2843,
      "ba": 2844,
      "USERID": 2845,
      "\\\"]": 2846,
      "ÛĮ": 2847,
      "ĠSo": 2848,
      "Ġstand": 2849,
      "Ġ:=": 2850,
      "Ġtake": 2851,
      "Ġfield": 2852,
      "tom": 2853,
      "alk": 2854,
      "customer": 2855,
      "ÑĪ": 2856,
      "ĠBut": 2857,
      "leg": 2858,
      "ounds": 2859,
      "Ar": 2860,
      "çĽ": 2861,
      "ĠUnited": 2862,
      "ĠBo": 2863,
      "Ġincumbent": 2864,
      "Ġris": 2865,
      "Ġincluding": 2866,
      "jor": 2867,
      "tle": 2868,
      "âĢľ": 2869,
      "Ġauthor": 2870,
      "saved": 2871,
      "ared": 2872,
      "EB": 2873,
      "ĠPr": 2874,
      "vest": 2875,
      "unity": 2876,
      "Ġchange": 2877,
      "agrave": 2878,
      "ana": 2879,
      "ĠJul": 2880,
      "It": 2881,
      "uary": 2882,
      "uy": 2883,
      "ills": 2884,
      "Windows": 2885,
      "hi": 2886,
      "Ġgames": 2887,
      "Ġbest": 2888,
      "percentage": 2889,
      "ora": 2890,
      "ĠØ§": 2891,
      "Ġips": 2892,
      "This": 2893,
      "Ġrace": 2894,
      "abor": 2895,
      "iven": 2896,
      "Ġallow": 2897,
      "ja": 2898,
      "æł": 2899,
      "ones": 2900,
      "ately": 2901,
      "Ġclo": 2902,
      "Ġsecond": 2903,
      "logistics": 2904,
      "ea": 2905,
      "andid": 2906,
      "ç®": 2907,
      "ĠApp": 2908,
      "Ġmen": 2909,
      "aves": 2910,
      "stra": 2911,
      "mbers": 2912,
      "conom": 2913,
      "Ġbody": 2914,
      "Ġcompetition": 2915,
      "iod": 2916,
      "HO": 2917,
      "ended": 2918,
      "Ġtrue": 2919,
      "Ġhead": 2920,
      "ĠApr": 2921,
      "èĩª": 2922,
      "'-": 2923,
      "Ġgeneral": 2924,
      "password": 2925,
      "iam": 2926,
      "äºº": 2927,
      "ĠRecord": 2928,
      "æŀ": 2929,
      "Ġnon": 2930,
      "Ġsupport": 2931,
      "áº£": 2932,
      "Ġipsum": 2933,
      "CF": 2934,
      "self": 2935,
      "iness": 2936,
      "transl": 2937,
      "Ġregion": 2938,
      "è¡Į": 2939,
      "char": 2940,
      "Ġleast": 2941,
      "akes": 2942,
      "Ġdr": 2943,
      "Ġamet": 2944,
      "ica": 2945,
      "Ġmolest": 2946,
      "ances": 2947,
      "book": 2948,
      "ICAgICAgICAgICAgICAgICAgICAgICAg": 2949,
      "Ñİ": 2950,
      "default": 2951,
      "cast": 2952,
      "OBJECT": 2953,
      "Ġaround": 2954,
      "Ġaut": 2955,
      "Ġfood": 2956,
      "AME": 2957,
      "II": 2958,
      "ºè": 2959,
      "lev": 2960,
      "ering": 2961,
      "arget": 2962,
      "ico": 2963,
      "Ġstatus": 2964,
      "final": 2965,
      "éĹ´": 2966,
      "event": 2967,
      "ĠDESC": 2968,
      "orm": 2969,
      "QUENCE": 2970,
      "WAIT": 2971,
      ".`": 2972,
      "iemp": 2973,
      "Ġwindow": 2974,
      "ä¸į": 2975,
      "fr": 2976,
      "ĠEx": 2977,
      "ĠMODIFY": 2978,
      "And": 2979,
      "riend": 2980,
      "Ð·": 2981,
      "cip": 2982,
      "layer": 2983,
      "ĠStates": 2984,
      "LAND": 2985,
      "Se": 2986,
      "itions": 2987,
      "URRE": 2988,
      "ĠOb": 2989,
      "SW": 2990,
      "ĠĠĠĠĠĠĠĠĠ": 2991,
      "Ġlocal": 2992,
      "Ġpercent": 2993,
      "Ġappro": 2994,
      "fd": 2995,
      "çĲ": 2996,
      "Ġpresent": 2997,
      "ĠComp": 2998,
      "ensus": 2999,
      "OG": 3000,
      "ext": 3001,
      "argin": 3002,
      "(\"": 3003,
      "NOT": 3004,
      "bar": 3005,
      "##": 3006,
      "ĉčĊ": 3007,
      "Ġitem": 3008,
      "tb": 3009,
      "»å": 3010,
      "Ġfrequ": 3011,
      "ÐµÑĤ": 3012,
      "Ġwritten": 3013,
      "Ġopp": 3014,
      "ÑĢÐ°": 3015,
      "æĻ": 3016,
      "MI": 3017,
      "ĠSEQUENCE": 3018,
      "assis": 3019,
      "ham": 3020,
      "season": 3021,
      "ament": 3022,
      "estion": 3023,
      "Ġfore": 3024,
      "oss": 3025,
      "Ġattrib": 3026,
      "æĪ·": 3027,
      "CS": 3028,
      "YW": 3029,
      "spe": 3030,
      "Ġident": 3031,
      "åŃĹ": 3032,
      "ley": 3033,
      "By": 3034,
      "ffff": 3035,
      "Ġcontain": 3036,
      "vices": 3037,
      "æ³": 3038,
      "ĠAmerican": 3039,
      "fess": 3040,
      "varchar": 3041,
      "ĠGROUP": 3042,
      "loadUser": 3043,
      "loadSystem": 3044,
      "loadNice": 3045,
      "loadIdle": 3046,
      "loadIrq": 3047,
      "rawLoadUser": 3048,
      "rawLoadSystem": 3049,
      "rawLoadNice": 3050,
      "rawLoadIdle": 3051,
      "rawLoadIrq": 3052,
      "Ġtimes": 3053,
      "content": 3054,
      "IZ": 3055,
      "Ð¾ÑĤ": 3056,
      "estin": 3057,
      "ĠIndex": 3058,
      "ager": 3059,
      "Ġwinner": 3060,
      "ĠTABLES": 3061,
      "Ġage": 3062,
      "Ġlanguage": 3063,
      "ati": 3064,
      "Ġcode": 3065,
      "ipis": 3066,
      "font": 3067,
      "Ġobject": 3068,
      "å¯": 3069,
      "ĠComm": 3070,
      "Ġparty": 3071,
      "AND": 3072,
      "cember": 3073,
      "Ġminim": 3074,
      "`(`": 3075,
      "duced": 3076,
      "On": 3077,
      "...": 3078,
      "áº¿": 3079,
      "Ġelit": 3080,
      "Ġwon": 3081,
      "lood": 3082,
      "ĠOr": 3083,
      "ASE": 3084,
      "oug": 3085,
      "ĠStart": 3086,
      ",@": 3087,
      "player": 3088,
      "atural": 3089,
      "Ġmus": 3090,
      "adium": 3091,
      "Res": 3092,
      "lie": 3093,
      ";\\": 3094,
      "tion": 3095,
      "ĠAc": 3096,
      "Ġknown": 3097,
      "Universal": 3098,
      "stitution": 3099,
      "BU": 3100,
      "Ġ'#": 3101,
      "IVE": 3102,
      "gn": 3103,
      "åŁ": 3104,
      "erature": 3105,
      "uit": 3106,
      "=@@": 3107,
      "gg": 3108,
      "()": 3109,
      "å»": 3110,
      "oplog": 3111,
      "aint": 3112,
      "fit": 3113,
      "****************": 3114,
      "Ãĥ": 3115,
      "Ġve": 3116,
      "patient": 3117,
      "dc": 3118,
      "gaon": 3119,
      "enn": 3120,
      "ĠBe": 3121,
      "IAT": 3122,
      "Ġadipis": 3123,
      "PhÆ°á»Ŀng": 3124,
      "AIR": 3125,
      "Ġconsider": 3126,
      "Io": 3127,
      "Ġpass": 3128,
      "pri": 3129,
      "Ġchang": 3130,
      "ĠAd": 3131,
      "Per": 3132,
      "Ġgovernment": 3133,
      "TA": 3134,
      "çĲĨ": 3135,
      "pop": 3136,
      "Ġold": 3137,
      "umns": 3138,
      "IDSEQ": 3139,
      "oz": 3140,
      "Ġphys": 3141,
      "SUR": 3142,
      "ability": 3143,
      "space": 3144,
      "iddle": 3145,
      "umber": 3146,
      "dt": 3147,
      "Ġsw": 3148,
      "uel": 3149,
      "Ġmar": 3150,
      "FD": 3151,
      "sy": 3152,
      "cp": 3153,
      "Ġleg": 3154,
      "MIN": 3155,
      "Ġpoint": 3156,
      "ILTER": 3157,
      "ĠAP": 3158,
      "ç«": 3159,
      "Ġvari": 3160,
      "rowd": 3161,
      "ZW": 3162,
      "active": 3163,
      "ctober": 3164,
      "DIME": 3165,
      "`.`": 3166,
      "rel": 3167,
      "Ġwar": 3168,
      "Ġenvironment": 3169,
      "node": 3170,
      "Ġservice": 3171,
      "OMIM": 3172,
      "Ġstill": 3173,
      "Ð¹": 3174,
      "Ġfa": 3175,
      "division": 3176,
      "adata": 3177,
      "Des": 3178,
      "\";": 3179,
      "Ġbecome": 3180,
      "FFFF": 3181,
      "DOW": 3182,
      "web": 3183,
      "TIME": 3184,
      "ĠEN": 3185,
      "!--": 3186,
      "itude": 3187,
      "\\\"}": 3188,
      "mar": 3189,
      "Ġill": 3190,
      "Ġplan": 3191,
      "IAL": 3192,
      "itive": 3193,
      "CLIENT": 3194,
      "Ġsocial": 3195,
      "Ãª": 3196,
      "Ġdevelopment": 3197,
      "city": 3198,
      "Ġfalse": 3199,
      "Ġiss": 3200,
      "agement": 3201,
      "ache": 3202,
      "illions": 3203,
      "å·²": 3204,
      "Ġtechno": 3205,
      "KTUP": 3206,
      "ĠMO": 3207,
      "oto": 3208,
      "perty": 3209,
      "Ġtri": 3210,
      "DIMENS": 3211,
      "Ġfamily": 3212,
      "uri": 3213,
      "ĠCar": 3214,
      "elf": 3215,
      "á»ĭ": 3216,
      "DIMENSIONS": 3217,
      "ĥ½": 3218,
      "ĠÐ¿ÑĢ": 3219,
      "AIRLINE": 3220,
      "ĠEXCEPT": 3221,
      "xb": 3222,
      "ĠDis": 3223,
      "ZX": 3224,
      "è½": 3225,
      "Ġnet": 3226,
      "Ġ'{": 3227,
      "ĠTr": 3228,
      "Ġemploy": 3229,
      "person": 3230,
      "Ġstre": 3231,
      "logical": 3232,
      "ched": 3233,
      "INDOW": 3234,
      "lim": 3235,
      "Ġtyp": 3236,
      "iae": 3237,
      "Ġdefinition": 3238,
      "ÐµÐ»": 3239,
      "æĸ°": 3240,
      "template": 3241,
      "Ġmillion": 3242,
      "agg": 3243,
      "VR": 3244,
      "NKTUP": 3245,
      "edia": 3246,
      "ĠSp": 3247,
      "Ġden": 3248,
      "rap": 3249,
      "Ġexperi": 3250,
      "ways": 3251,
      "åĵ": 3252,
      "pped": 3253,
      "into": 3254,
      "Ġenergy": 3255,
      "ĠThere": 3256,
      "atab": 3257,
      "Ġfr": 3258,
      "Ġland": 3259,
      "Ġdisease": 3260,
      "Ġcase": 3261,
      "Ġsimp": 3262,
      "February": 3263,
      "RESULT": 3264,
      "HR": 3265,
      "Ùĩ": 3266,
      "icing": 3267,
      "Ġref": 3268,
      "ĠTENKTUP": 3269,
      "Cl": 3270,
      "To": 3271,
      "Xian": 3272,
      "uploads": 3273,
      "icro": 3274,
      "Ð¾Ð½": 3275,
      "Ġspecies": 3276,
      "We": 3277,
      "Data": 3278,
      "},{\\\"": 3279,
      "Ġconstruct": 3280,
      "divid": 3281,
      "WHERE": 3282,
      "quot": 3283,
      "Ġmajor": 3284,
      "Chrome": 3285,
      "tel": 3286,
      "ĠIndexes": 3287,
      "istrict": 3288,
      "bon": 3289,
      "Ġanal": 3290,
      "éĥ¨": 3291,
      "resident": 3292,
      "Ġhand": 3293,
      "Ġthink": 3294,
      "ä¸ľ": 3295,
      ")?": 3296,
      "xd": 3297,
      "Ġwomen": 3298,
      "Ã¼": 3299,
      "å®ī": 3300,
      "nal": 3301,
      "ĠEndPoint": 3302,
      "ĠGo": 3303,
      "ograph": 3304,
      "Ġmov": 3305,
      "start": 3306,
      "ĠDep": 3307,
      "Ġdefault": 3308,
      "Ġcourse": 3309,
      "æĹ¶éĹ´": 3310,
      "ya": 3311,
      "æ¹": 3312,
      "Ġ;": 3313,
      "against": 3314,
      "Ġgener": 3315,
      "ĠCount": 3316,
      "Ġsuccess": 3317,
      "ams": 3318,
      "Ġwithin": 3319,
      "RESULTS": 3320,
      "inh": 3321,
      "Ġ.": 3322,
      "tes": 3323,
      "ctor": 3324,
      "Ġwant": 3325,
      "My": 3326,
      "screen": 3327,
      "ta": 3328,
      "ĠBu": 3329,
      "Ġnationality": 3330,
      "Ġmight": 3331,
      "Ġbeh": 3332,
      "Ð¾Ð¹": 3333,
      "Ġindivid": 3334,
      "Comp": 3335,
      "áº¥": 3336,
      "StartTime": 3337,
      "åı·": 3338,
      "ĠBT": 3339,
      "dom": 3340,
      "Ġpers": 3341,
      "CONNE": 3342,
      "CHECK": 3343,
      "ox": 3344,
      "ĠID": 3345,
      "ided": 3346,
      "Ġanim": 3347,
      "åľ¨": 3348,
      "comment": 3349,
      "Ġmeas": 3350,
      "detail": 3351,
      "Ġweb": 3352,
      "ĠAir": 3353,
      "ĠAug": 3354,
      "ene": 3355,
      "iment": 3356,
      "ONE": 3357,
      "service": 3358,
      "bs": 3359,
      "çŃ": 3360,
      "Ġversion": 3361,
      "ĠMet": 3362,
      "Ã¢n": 3363,
      "ASK": 3364,
      "Ġge": 3365,
      "Ġmolestiae": 3366,
      "ĠAt": 3367,
      "ĠNational": 3368,
      "ribute": 3369,
      "close": 3370,
      "ĠBTREE": 3371,
      "Ġanother": 3372,
      "Ġinterest": 3373,
      "opponent": 3374,
      "CONNECTION": 3375,
      "ĠMan": 3376,
      "oken": 3377,
      "layout": 3378,
      "example": 3379,
      "Ġassoci": 3380,
      "Ġdivision": 3381,
      "Ġdon": 3382,
      "mig": 3383,
      "company": 3384,
      "CAO": 3385,
      "Ġscient": 3386,
      "Ġbas": 3387,
      "Ġdescription": 3388,
      "ydro": 3389,
      "ufact": 3390,
      "He": 3391,
      "ster": 3392,
      "ampions": 3393,
      "lang": 3394,
      "Ġdirected": 3395,
      "iat": 3396,
      "sl": 3397,
      "sec": 3398,
      "ickname": 3399,
      "top": 3400,
      "vious": 3401,
      "Stamp": 3402,
      "<!--": 3403,
      "CN": 3404,
      "do": 3405,
      "ĠMARK": 3406,
      "ĠSQL": 3407,
      "Ġfug": 3408,
      "goals": 3409,
      "rat": 3410,
      "idx": 3411,
      "ĠFILTER": 3412,
      "itional": 3413,
      "national": 3414,
      "Ġ'_": 3415,
      "oulut": 3416,
      "mend": 3417,
      "Le": 3418,
      "bed": 3419,
      "REXT": 3420,
      "otes": 3421,
      "ĠSBREXT": 3422,
      "Ð°Ð½": 3423,
      "Ð¾Ð³": 3424,
      "Ġrole": 3425,
      "IB": 3426,
      "YX": 3427,
      "sb": 3428,
      "Ġmaterial": 3429,
      "annel": 3430,
      "AAAAAAAAAAAAAAAA": 3431,
      ";/": 3432,
      "head": 3433,
      "urope": 3434,
      ")'),('": 3435,
      "ĠWINDOW": 3436,
      "Ġdesign": 3437,
      "latin": 3438,
      "week": 3439,
      "minute": 3440,
      "Ġpract": 3441,
      "Ġlater": 3442,
      "tember": 3443,
      "ĠYou": 3444,
      "Ġprogram": 3445,
      "VALUE": 3446,
      "deleted": 3447,
      "ç»Ł": 3448,
      "Ġpress": 3449,
      "Ġnear": 3450,
      "with": 3451,
      "Ġpot": 3452,
      "mergency": 3453,
      "DU": 3454,
      "Ġdocu": 3455,
      "PER": 3456,
      "Ġadipisicing": 3457,
      "VALUES": 3458,
      "ĠFOR": 3459,
      "If": 3460,
      "url": 3461,
      "rs": 3462,
      "sama": 3463,
      "ura": 3464,
      "Ġcho": 3465,
      "xc": 3466,
      "ifier": 3467,
      "Ġsaf": 3468,
      "ĠStarting": 3469,
      "Ġ||": 3470,
      "ĠWITH": 3471,
      "Ġdem": 3472,
      "Ġavailable": 3473,
      "CTOR": 3474,
      "Ġunderstand": 3475,
      "ni": 3476,
      "pk": 3477,
      "ertain": 3478,
      "\\\"]',": 3479,
      "Ġrece": 3480,
      "Ġtabla": 3481,
      "ttp": 3482,
      "Ġblood": 3483,
      "Ġinclude": 3484,
      "Ġ'');": 3485,
      "Ġeconom": 3486,
      "columns": 3487,
      "TimeStamp": 3488,
      "itor": 3489,
      "Ġev": 3490,
      "sed": 3491,
      "Ġdou": 3492,
      "Ġavoid": 3493,
      "straint": 3494,
      "ĠBalance": 3495,
      "ç±": 3496,
      "\"?": 3497,
      "NTO": 3498,
      "ban": 3499,
      "alary": 3500,
      "Ð¾Ñģ": 3501,
      "ternal": 3502,
      "cle": 3503,
      "Ġpolit": 3504,
      "ES": 3505,
      "Lorem": 3506,
      "fb": 3507,
      "van": 3508,
      "ived": 3509,
      "Ġsever": 3510,
      "iled": 3511,
      "xe": 3512,
      "zy": 3513,
      "END": 3514,
      "rc": 3515,
      "ÐµÐ½Ð¸": 3516,
      "Ġfour": 3517,
      "parent": 3518,
      "member": 3519,
      "acity": 3520,
      "oods": 3521,
      "cover": 3522,
      "Ġline": 3523,
      "draw": 3524,
      "atabase": 3525,
      "ots": 3526,
      "è®¾": 3527,
      "MARK": 3528,
      "ought": 3529,
      "ita": 3530,
      "Ġfree": 3531,
      "Ġcost": 3532,
      "Ġinvol": 3533,
      "new": 3534,
      "now": 3535,
      "Ġsays": 3536,
      "lam": 3537,
      "ĠThese": 3538,
      "Ġsay": 3539,
      "Ð¾Ð±": 3540,
      "ĠĠĠĠĠĠĠĠĠĠĠĠ": 3541,
      "ĠScore": 3542,
      "PLUS": 3543,
      "ua": 3544,
      "åĳ": 3545,
      "Ġgu": 3546,
      "agraph": 3547,
      "ĠPRO": 3548,
      "usto": 3549,
      "Ġperiod": 3550,
      "ring": 3551,
      "Ġeas": 3552,
      "partment": 3553,
      "ered": 3554,
      "yC": 3555,
      "çº": 3556,
      "ä¸ī": 3557,
      "Ġmove": 3558,
      "Ġresults": 3559,
      "Ġtre": 3560,
      "alt": 3561,
      "Ġdri": 3562,
      "SURPLUS": 3563,
      "udi": 3564,
      "Ġprovide": 3565,
      "Bo": 3566,
      "Me": 3567,
      "rate": 3568,
      "ĠÑĢ": 3569,
      "atedb": 3570,
      "Ġlaw": 3571,
      "å¤§": 3572,
      "sql": 3573,
      "tag": 3574,
      "ĠÑĤ": 3575,
      "Ġteach": 3576,
      "DECLARATION": 3577,
      "zone": 3578,
      "PIMS": 3579,
      "ITY": 3580,
      "åĪĨ": 3581,
      "Ġattributes": 3582,
      "public": 3583,
      "ĠRep": 3584,
      "Item": 3585,
      "fric": 3586,
      "æŃ": 3587,
      "XY": 3588,
      "Ġstates": 3589,
      "Ġoverall": 3590,
      "BF": 3591,
      "Ġ'{\"": 3592,
      "MT": 3593,
      "si": 3594,
      "ACE": 3595,
      "EL": 3596,
      "erm": 3597,
      "olism": 3598,
      "aacute": 3599,
      "config": 3600,
      "agn": 3601,
      "Ġaccess": 3602,
      "'d": 3603,
      "Ġtxt": 3604,
      "usiness": 3605,
      "unk": 3606,
      "ç³»ç»Ł": 3607,
      "ĠIm": 3608,
      "FIN": 3609,
      "aiemp": 3610,
      "path": 3611,
      "éĶ": 3612,
      "TENT": 3613,
      "Ġlight": 3614,
      "Ġsafety": 3615,
      "apan": 3616,
      "aiempi": 3617,
      "No": 3618,
      "Ãº": 3619,
      "urren": 3620,
      "ĠQ": 3621,
      "ecTimeStamp": 3622,
      "æĶ¹": 3623,
      "ario": 3624,
      "itch": 3625,
      "Ġnames": 3626,
      "fc": 3627,
      "ĠChrist": 3628,
      "Ka": 3629,
      "sm": 3630,
      "sell": 3631,
      "Ġcells": 3632,
      "ĠColor": 3633,
      "andae": 3634,
      "ift": 3635,
      "ney": 3636,
      "Ġrepresent": 3637,
      "ä¿®": 3638,
      "translations": 3639,
      "Ġbl": 3640,
      "like": 3641,
      "GV": 3642,
      "Ġ-->\\": 3643,
      "GRA": 3644,
      "Ġmembers": 3645,
      "ãģĻ": 3646,
      "Thing": 3647,
      "å¤ĩ": 3648,
      "Ġsource": 3649,
      "ilit": 3650,
      "æĽ": 3651,
      "pecial": 3652,
      "ĠGod": 3653,
      "cording": 3654,
      "XL": 3655,
      "Ġsex": 3656,
      "light": 3657,
      "Ġrgb": 3658,
      "PHA": 3659,
      "idence": 3660,
      "éĹ¨": 3661,
      "æį": 3662,
      "Ġsince": 3663,
      "series": 3664,
      "ĠOW": 3665,
      "EN": 3666,
      "æ²»": 3667,
      "Ġtreatment": 3668,
      "yan": 3669,
      "Ġput": 3670,
      "hold": 3671,
      "ç½ĳ": 3672,
      "oulutus": 3673,
      "MG": 3674,
      "Ġsite": 3675,
      "uration": 3676,
      "\\\"},{\\\"": 3677,
      "VD": 3678,
      "Ġreal": 3679,
      "posit": 3680,
      "Ġrequire": 3681,
      "Ġed": 3682,
      "Ġwhe": 3683,
      ".-": 3684,
      "illi": 3685,
      "ĠState": 3686,
      "Ġdan": 3687,
      "aged": 3688,
      "acy": 3689,
      "Ġappear": 3690,
      "Ġtrain": 3691,
      "YT": 3692,
      "ola": 3693,
      "Ġdeter": 3694,
      "Ġearly": 3695,
      "éĩı": 3696,
      "ĠTime": 3697,
      "At": 3698,
      "Ġben": 3699,
      "estions": 3700,
      "Ġmetab": 3701,
      "OU": 3702,
      "à¹": 3703,
      "ĠTASK": 3704,
      "Ġcult": 3705,
      "Ġnext": 3706,
      "kal": 3707,
      "Ġplatedb": 3708,
      "family": 3709,
      "ush": 3710,
      "MARKS": 3711,
      "Ġrec": 3712,
      "PR": 3713,
      "Ser": 3714,
      "olic": 3715,
      "ĠDIS": 3716,
      "Ġcounty": 3717,
      "Ġcolor": 3718,
      "Ġtoo": 3719,
      "Ġrecent": 3720,
      "STUDENT": 3721,
      ">>>>": 3722,
      "Insert": 3723,
      "Ġaccount": 3724,
      "Ġeom": 3725,
      "laps": 3726,
      "Ġheight": 3727,
      "Ġjob": 3728,
      "å¿«": 3729,
      "Ġ'#',": 3730,
      "Ġcustom": 3731,
      "IOs": 3732,
      "ĠStud": 3733,
      "Ġseveral": 3734,
      "stance": 3735,
      "ĠEOM": 3736,
      "Ġrad": 3737,
      "æ²³": 3738,
      "ames": 3739,
      "Ġdu": 3740,
      "Ġgiven": 3741,
      "Ġmot": 3742,
      "amil": 3743,
      "Code": 3744,
      "eu": 3745,
      "BEGIN": 3746,
      "male": 3747,
      "Ġothers": 3748,
      "Ġpossible": 3749,
      "Dan": 3750,
      "æ´": 3751,
      "account": 3752,
      "Ġweight": 3753,
      "drop": 3754,
      "ĠĠĠĠĠĠĠĠĠĠĠĠĠĠĠĠĠĠĠ": 3755,
      "å®¶": 3756,
      "ÐµÐ¼": 3757,
      "Con": 3758,
      "sing": 3759,
      "rd": 3760,
      "Ġparticular": 3761,
      "ĠIntern": 3762,
      "å»º": 3763,
      ",âĢĿ": 3764,
      "ners": 3765,
      "isi": 3766,
      "Ġhard": 3767,
      "igin": 3768,
      "Ġcountries": 3769,
      "BR": 3770,
      "åĲį": 3771,
      "},{\"": 3772,
      "Ġ|": 3773,
      "era": 3774,
      "alv": 3775,
      "values": 3776,
      "ĠHowever": 3777,
      "swap": 3778,
      "Ġbegin": 3779,
      "Ġsim": 3780,
      "Ġrefer": 3781,
      "ste": 3782,
      "Ġì": 3783,
      "ĠGen": 3784,
      "åĩº": 3785,
      "icon": 3786,
      "ava": 3787,
      "CHECKS": 3788,
      "bers": 3789,
      "Ġhistory": 3790,
      "Nag": 3791,
      "kt": 3792,
      "thern": 3793,
      "Ð¸ÑĤ": 3794,
      "inux": 3795,
      "Ġmean": 3796,
      "disp": 3797,
      "èĩªæ²»": 3798,
      "YS": 3799,
      "Ġvar": 3800,
      "authz": 3801,
      "XA": 3802,
      "hy": 3803,
      "æİ": 3804,
      "Ġpat": 3805,
      "Ġdeath": 3806,
      "lor": 3807,
      "Ġmer": 3808,
      "lier": 3809,
      "iation": 3810,
      "Ġparent": 3811,
      "å·Ŀ": 3812,
      "term": 3813,
      "ĠÐ·": 3814,
      "paragraph": 3815,
      "åħ¥": 3816,
      "KEY": 3817,
      "pa": 3818,
      "Ġcategory": 3819,
      "á»Ļ": 3820,
      "Ġpubl": 3821,
      "Ġfar": 3822,
      "ĠAD": 3823,
      "Ġcheck": 3824,
      "Ġsize": 3825,
      "urns": 3826,
      "Ġleague": 3827,
      "Ġprimary": 3828,
      "Ġut": 3829,
      "vil": 3830,
      "pert": 3831,
      "news": 3832,
      "ummy": 3833,
      "Ġaddress": 3834,
      "TH": 3835,
      "ught": 3836,
      "finish": 3837,
      "ison": 3838,
      "ĠMe": 3839,
      "Ð°Ð»": 3840,
      "ssage": 3841,
      "Ġrisk": 3842,
      "Bible": 3843,
      "aper": 3844,
      "Ġfollowing": 3845,
      "Ġmain": 3846,
      "ftware": 3847,
      "population": 3848,
      "username": 3849,
      "BibleApp": 3850,
      "MY": 3851,
      "Ġdisc": 3852,
      "Ġtry": 3853,
      "Ġder": 3854,
      "ÐµÐ´": 3855,
      "odes": 3856,
      "\\\"><": 3857,
      "TypeID": 3858,
      "ĠROW": 3859,
      "ument": 3860,
      "Ġnatural": 3861,
      "åħ¬": 3862,
      "ius": 3863,
      "Ð°ÑĤ": 3864,
      "fect": 3865,
      "URCE": 3866,
      "link": 3867,
      "osition": 3868,
      "å¿ĥ": 3869,
      "Ġreturn": 3870,
      "URRENT": 3871,
      "Par": 3872,
      "unique": 3873,
      "ãģ®": 3874,
      "çłģ": 3875,
      "ida": 3876,
      "model": 3877,
      "ĠâĢĶ": 3878,
      "pes": 3879,
      "è§": 3880,
      "ective": 3881,
      "Col": 3882,
      "Ġ''": 3883,
      "Ġwhose": 3884,
      "ĠÐ³": 3885,
      "vc": 3886,
      "string": 3887,
      "ä¿®æĶ¹": 3888,
      "ym": 3889,
      "ably": 3890,
      "Ġcomment": 3891,
      "Man": 3892,
      "bit": 3893,
      "den": 3894,
      "ĠENABLE": 3895,
      "urch": 3896,
      "ored": 3897,
      "ĠProduct": 3898,
      "ission": 3899,
      "Ġspecial": 3900,
      "Ġlosses": 3901,
      "xa": 3902,
      "\\\"]'),": 3903,
      "Ġmetabolism": 3904,
      "ye": 3905,
      "ĠNorth": 3906,
      "rag": 3907,
      "AY": 3908,
      "aps": 3909,
      "åĮĹ": 3910,
      "Ġindust": 3911,
      "page": 3912,
      "servation": 3913,
      "uck": 3914,
      "though": 3915,
      "ountain": 3916,
      "Ġamong": 3917,
      "Ġdetermin": 3918,
      "Ã´": 3919,
      "character": 3920,
      "Ã¸": 3921,
      "éĺ³": 3922,
      "LOC": 3923,
      "Invoice": 3924,
      "aut": 3925,
      "Ġerror": 3926,
      "Ġnetwork": 3927,
      "éĿ": 3928,
      "ĠMed": 3929,
      "Ġchassis": 3930,
      "å¼ł": 3931,
      "ij": 3932,
      "Ġmeans": 3933,
      "Mar": 3934,
      "LIS": 3935,
      "free": 3936,
      "wan": 3937,
      "Ð¾ÑģÑĤ": 3938,
      "prov": 3939,
      "æľī": 3940,
      "EP": 3941,
      "ĠÐ±": 3942,
      "fix": 3943,
      "rant": 3944,
      "Ġhapp": 3945,
      "tain": 3946,
      "ipes": 3947,
      "ĠÐ¼": 3948,
      "Ġimpro": 3949,
      "For": 3950,
      "Ġbased": 3951,
      "room": 3952,
      "Ġareas": 3953,
      "VER": 3954,
      "ĠĠĠĠĠĠĠĠĠĠĠĠĠĠ": 3955,
      "istor": 3956,
      "amino": 3957,
      "ĠØ§ÙĦ": 3958,
      "idth": 3959,
      "ĠÐ½Ð°": 3960,
      "ias": 3961,
      "é»": 3962,
      ".\",": 3963,
      "Cre": 3964,
      "organ": 3965,
      "Ġhost": 3966,
      "Ġhigher": 3967,
      "Ġproducts": 3968,
      "\">": 3969,
      "Li": 3970,
      "inter": 3971,
      "ĠFind": 3972,
      "missions": 3973,
      "has": 3974,
      "PRE": 3975,
      "chant": 3976,
      "Ġbetter": 3977,
      "æĶ¶": 3978,
      "ĠEND": 3979,
      "ending": 3980,
      "ached": 3981,
      "Fe": 3982,
      "Ġevents": 3983,
      "Not": 3984,
      "Ġlearn": 3985,
      "ICO": 3986,
      "koulutus": 3987,
      "idge": 3988,
      "Ġroom": 3989,
      "dispatch": 3990,
      "Ġcrit": 3991,
      "host": 3992,
      "arning": 3993,
      "ĠPrice": 3994,
      "ĠAfric": 3995,
      "Ã£o": 3996,
      "POST": 3997,
      "gl": 3998,
      "Ġabo": 3999,
      "uses": 4000,
      "','','','',": 4001,
      "ĠNe": 4002,
      "Ġstadium": 4003,
      "Ġshort": 4004,
      "Ġfrequency": 4005,
      "driver": 4006,
      "Ġopt": 4007,
      "ĠPlayer": 4008,
      "FORMAT": 4009,
      "alf": 4010,
      "ffic": 4011,
      "ĠYork": 4012,
      "Ġvary": 4013,
      "CLO": 4014,
      "ington": 4015,
      "ension": 4016,
      "æĹı": 4017,
      "RU": 4018,
      "cup": 4019,
      "ĠCity": 4020,
      "Ġmoney": 4021,
      "ured": 4022,
      "Ġable": 4023,
      "Ġrunner": 4024,
      "Ġfilm": 4025,
      "SUB": 4026,
      "hz": 4027,
      "Ġperform": 4028,
      "retired": 4029,
      "Ġkeep": 4030,
      "lah": 4031,
      "oman": 4032,
      "ĠĠĠĠĠĠĠĠĠĠĠĠĠ": 4033,
      "ĠEn": 4034,
      "sa": 4035,
      "ilar": 4036,
      "Ġaffect": 4037,
      "ĠRecords": 4038,
      "ĠBuild": 4039,
      "ccus": 4040,
      "ĠDISABLE": 4041,
      "Nagpur": 4042,
      "Ø¨": 4043,
      "Ġcart": 4044,
      "Ġrest": 4045,
      "lb": 4046,
      "ĠCURRENT": 4047,
      "Ġdie": 4048,
      "ĠSouth": 4049,
      "ither": 4050,
      "ĠList": 4051,
      "Ġ],": 4052,
      "Ġlat": 4053,
      "Ġstudent": 4054,
      "fec": 4055,
      "unc": 4056,
      "COLL": 4057,
      "ĠSci": 4058,
      "ĠÄĲ": 4059,
      "ç¼": 4060,
      "é¢": 4061,
      "Ġdays": 4062,
      "cies": 4063,
      "Ġdirector": 4064,
      "period": 4065,
      "long": 4066,
      "Ġgroups": 4067,
      "åŁİ": 4068,
      "æį®": 4069,
      "Ã¥": 4070,
      "Ġformat": 4071,
      "elected": 4072,
      "month": 4073,
      "?\\": 4074,
      "Sk": 4075,
      "sur": 4076,
      "Ġfont": 4077,
      "rations": 4078,
      "delete": 4079,
      "apur": 4080,
      "max": 4081,
      "Ġtabel": 4082,
      "coccus": 4083,
      "ledge": 4084,
      "ĠTeam": 4085,
      "Be": 4086,
      "OC": 4087,
      "Ð³": 4088,
      "Ġhttp": 4089,
      "urther": 4090,
      "ĠOS": 4091,
      "Ġhouse": 4092,
      "Ġproblems": 4093,
      "hr": 4094,
      "Ġground": 4095,
      "bounds": 4096,
      "side": 4097,
      "alm": 4098,
      "ĠAss": 4099,
      "cim": 4100,
      "SOURCE": 4101,
      "Ġcollect": 4102,
      "ysis": 4103,
      "Ġcompany": 4104,
      "upt": 4105,
      "Ġcannot": 4106,
      "éĻ¤": 4107,
      "fde": 4108,
      "mf": 4109,
      "\\\",": 4110,
      "ceiver": 4111,
      "avn": 4112,
      "Ġactiv": 4113,
      "):": 4114,
      "nes": 4115,
      "buy": 4116,
      "Ġuntuk": 4117,
      "ThingID": 4118,
      "FS": 4119,
      "OW": 4120,
      "Ġartist": 4121,
      "AG": 4122,
      "ĠPe": 4123,
      "Ġprofess": 4124,
      "ribution": 4125,
      "bear": 4126,
      "oly": 4127,
      "efb": 4128,
      "report": 4129,
      "Ġuntil": 4130,
      "Brand": 4131,
      "TES": 4132,
      "cod": 4133,
      "Ġcause": 4134,
      "Ġclear": 4135,
      "Ġcontent": 4136,
      "moved": 4137,
      "Ġnormal": 4138,
      "aken": 4139,
      "ĠJun": 4140,
      "gether": 4141,
      "ĠAg": 4142,
      "catalog": 4143,
      "ĠCup": 4144,
      "ÐµÐ¹": 4145,
      "version": 4146,
      "Ġabove": 4147,
      "*/": 4148,
      "dummy": 4149,
      "pick": 4150,
      "VARCHAR": 4151,
      "bc": 4152,
      ">',": 4153,
      "Ind": 4154,
      "ira": 4155,
      "ume": 4156,
      "ä½ľ": 4157,
      "kaos": 4158,
      "Ġconnect": 4159,
      "Ġestab": 4160,
      "emergency": 4161,
      "vey": 4162,
      "area": 4163,
      "AK": 4164,
      "PD": 4165,
      "exp": 4166,
      "Ġ'<": 4167,
      "Ġexist": 4168,
      "Ġ],\\": 4169,
      "sign": 4170,
      "info": 4171,
      "Ġfile": 4172,
      "AGR": 4173,
      "Comm": 4174,
      "FL": 4175,
      "Ð°Ð²": 4176,
      "Ð°Ð·": 4177,
      "åĵģ": 4178,
      "æĭ": 4179,
      "Ġq": 4180,
      "Ġmult": 4181,
      "ÄĲ": 4182,
      "eric": 4183,
      "Ġside": 4184,
      "ĠPart": 4185,
      "Ġprevent": 4186,
      "Ġcentury": 4187,
      "COLLATION": 4188,
      "EST": 4189,
      "ĠStr": 4190,
      "ago": 4191,
      "MODE": 4192,
      "uan": 4193,
      "Ah": 4194,
      "Alist": 4195,
      "nag": 4196,
      "Ġcandid": 4197,
      "Ġsys": 4198,
      "liSp": 4199,
      "VBIAliSp": 4200,
      "kallag": 4201,
      "Alistipes": 4202,
      "leaves": 4203,
      "Ġgoal": 4204,
      "errors": 4205,
      "Table": 4206,
      "jay": 4207,
      "uz": 4208,
      "ĠÂ": 4209,
      "Ġconcept": 4210,
      "æı": 4211,
      "Ġterm": 4212,
      "fil": 4213,
      "Ġ%": 4214,
      "ensity": 4215,
      "ĠImage": 4216,
      "BY": 4217,
      "Ġcertain": 4218,
      "lain": 4219,
      "Ġmem": 4220,
      "Acid": 4221,
      "FR": 4222,
      "ĠWar": 4223,
      "obile": 4224,
      "æĽ´": 4225,
      "iá»ĩ": 4226,
      "town": 4227,
      "Ġself": 4228,
      "ĠEurope": 4229,
      "Ġplant": 4230,
      "bg": 4231,
      "Ð±": 4232,
      "ERV": 4233,
      "chedu": 4234,
      "åĪł": 4235,
      "estini": 4236,
      "GOR": 4237,
      "Ġbelie": 4238,
      "Ġlink": 4239,
      "çĶŁ": 4240,
      "wins": 4241,
      "ĠCal": 4242,
      "ciInt": 4243,
      "Ġintestini": 4244,
      "ĠRyC": 4245,
      "Ġspace": 4246,
      "Acin": 4247,
      "VBIAciInt": 4248,
      "aminococcus": 4249,
      "Acidaminococcus": 4250,
      "sort": 4251,
      "çİ": 4252,
      "height": 4253,
      "Ġhor": 4254,
      "Ġemp": 4255,
      "dit": 4256,
      "åĽĽ": 4257,
      "lin": 4258,
      "available": 4259,
      "ĠEndPointIOs": 4260,
      ".','": 4261,
      "Global": 4262,
      "ustral": 4263,
      "ynam": 4264,
      "Ñī": 4265,
      "ĠNo": 4266,
      "Ġblack": 4267,
      "stud": 4268,
      "ĠPer": 4269,
      "commend": 4270,
      "áĢº": 4271,
      "LEARNED": 4272,
      "Ag": 4273,
      "bull": 4274,
      "artment": 4275,
      "bddb": 4276,
      "Revenue": 4277,
      "Ġdescri": 4278,
      "abdef": 4279,
      "Ġrelease": 4280,
      "Linux": 4281,
      "ised": 4282,
      "Ġyoung": 4283,
      "Ġ'@": 4284,
      "aries": 4285,
      "Receiver": 4286,
      "Ġvis": 4287,
      "attribute": 4288,
      "Profit": 4289,
      "LOG": 4290,
      "CLOSE": 4291,
      "åĪłéĻ¤": 4292,
      "nic": 4293,
      "RITE": 4294,
      "ovember": 4295,
      "%\"": 4296,
      "ien": 4297,
      "ABU": 4298,
      "cons": 4299,
      "php": 4300,
      "ĠFeb": 4301,
      "loss": 4302,
      "OTN": 4303,
      "MC": 4304,
      "gress": 4305,
      "yes": 4306,
      "ese": 4307,
      "Ġbirth": 4308,
      "Ġmember": 4309,
      "lications": 4310,
      "Ġ}": 4311,
      "Ġinvest": 4312,
      "ĠMin": 4313,
      "supp": 4314,
      "bp": 4315,
      "change": 4316,
      "urg": 4317,
      "ii": 4318,
      "GBP": 4319,
      "Ġcorre": 4320,
      "Ġbuilding": 4321,
      "Ġcancer": 4322,
      "Ġexperience": 4323,
      "bt": 4324,
      "Ġlower": 4325,
      "\".": 4326,
      "doc": 4327,
      "atory": 4328,
      "Ġthings": 4329,
      "goods": 4330,
      "Ġsignific": 4331,
      "Ġcircuit": 4332,
      "opy": 4333,
      "Ġoutcome": 4334,
      "ĠEnglish": 4335,
      "urrency": 4336,
      "åĨħç½ĳ": 4337,
      "Ġtechnology": 4338,
      "åĨħç½ĳIP": 4339,
      "Ġsugg": 4340,
      "NZ": 4341,
      "han": 4342,
      "permission": 4343,
      "Ġqual": 4344,
      "Ãĺ": 4345,
      "Ġvir": 4346,
      "lip": 4347,
      "YYYY": 4348,
      "JPY": 4349,
      "her": 4350,
      "ĠÑĥ": 4351,
      "çĶ¨æĪ·": 4352,
      "Ġvisitor": 4353,
      "ç®¡": 4354,
      "Ġsong": 4355,
      "bf": 4356,
      "road": 4357,
      "quence": 4358,
      "ĠONLY": 4359,
      "Ġtemperature": 4360,
      "viewers": 4361,
      "Ġsystems": 4362,
      "å¼łä¸ī": 4363,
      "åĪĽ": 4364,
      "Description": 4365,
      "kl": 4366,
      "ĠWin": 4367,
      "Ġport": 4368,
      "ExecTimeStamp": 4369,
      "ilities": 4370,
      "Ġgra": 4371,
      "IMIT": 4372,
      "Ġ@@": 4373,
      "GBPUSD": 4374,
      "Gen": 4375,
      "Ġce": 4376,
      "Ġmanufact": 4377,
      "Ġdocument": 4378,
      "EXT": 4379,
      "Ġtell": 4380,
      "ĠJohn": 4381,
      "ANIMAL": 4382,
      "ĠAndroid": 4383,
      "Ġproblem": 4384,
      "USDJPY": 4385,
      "earch": 4386,
      "depend": 4387,
      "Ġæľ¬æľºåľ°åĿĢ": 4388,
      "lies": 4389,
      "ĠMetadata": 4390,
      "Te": 4391,
      "ĠWorld": 4392,
      "WRSH": 4393,
      "éĥ½": 4394,
      "æķ°æį®": 4395,
      "dummyimage": 4396,
      "RED": 4397,
      "ĠisNew": 4398,
      "Ġcontin": 4399,
      "ºèĥ½": 4400,
      "ĠMOCK": 4401,
      "Ø³": 4402,
      "estern": 4403,
      "ĠEar": 4404,
      "ropped": 4405,
      "ATEGOR": 4406,
      "ols": 4407,
      "Ġbuilt": 4408,
      "æĻºèĥ½": 4409,
      "kn": 4410,
      "xy": 4411,
      "los": 4412,
      "NV": 4413,
      "COMM": 4414,
      "true": 4415,
      "Ġpay": 4416,
      "ATUS": 4417,
      "ä¸ª": 4418,
      "æĬ": 4419,
      "ĠVol": 4420,
      "oup": 4421,
      "Ġmargin": 4422,
      "å¹¿": 4423,
      "Ġlittle": 4424,
      "ĠCor": 4425,
      "Android": 4426,
      "ipix": 4427,
      "å¤©": 4428,
      "Ġparticip": 4429,
      "times": 4430,
      "ui": 4431,
      "Ġcut": 4432,
      "cot": 4433,
      "iki": 4434,
      "XB": 4435,
      "millions": 4436,
      "æ¸": 4437,
      "icles": 4438,
      "Ġhum": 4439,
      "ivil": 4440,
      "gender": 4441,
      "Ġtrad": 4442,
      "Ġwords": 4443,
      "Eng": 4444,
      "lan": 4445,
      "Ġpara": 4446,
      "Ġrights": 4447,
      "ä¸º": 4448,
      "ASS": 4449,
      "jack": 4450,
      "incip": 4451,
      "lying": 4452,
      "ä¸ĭ": 4453,
      "Ġer": 4454,
      "Ġreser": 4455,
      "Ġzero": 4456,
      "Ġcommunity": 4457,
      "åķĬ": 4458,
      "oot": 4459,
      "token": 4460,
      "Ġindex": 4461,
      "Ġnever": 4462,
      "Ġfinish": 4463,
      "Ð°ÑĢ": 4464,
      "ĉĉĉĉĉĉĉĉ": 4465,
      "Ġspecific": 4466,
      "GUID": 4467,
      "ites": 4468,
      "object": 4469,
      "Ġassociated": 4470,
      "ä¸Ńå¿ĥ": 4471,
      "Ġpolitical": 4472,
      "jo": 4473,
      "pper": 4474,
      "Controller": 4475,
      "ç¼ĸ": 4476,
      "Red": 4477,
      "ros": 4478,
      "à¸²": 4479,
      "Ġcy": 4480,
      "Ġsens": 4481,
      "ĠNAME": 4482,
      "Ġver": 4483,
      "avid": 4484,
      "salary": 4485,
      "æ°": 4486,
      "avg": 4487,
      "download": 4488,
      "Ġthird": 4489,
      "å®ļ": 4490,
      "Ġinfect": 4491,
      "ITE": 4492,
      "pping": 4493,
      "ests": 4494,
      "oyi": 4495,
      "md": 4496,
      "Ġir": 4497,
      "Ġaward": 4498,
      "rack": 4499,
      "Ġnecess": 4500,
      "LOCATION": 4501,
      "OH": 4502,
      "came": 4503,
      "ä¿¡": 4504,
      "Kaos": 4505,
      "arwin": 4506,
      "Ġconf": 4507,
      "module": 4508,
      "foreign": 4509,
      "ators": 4510,
      "isco": 4511,
      "Qo": 4512,
      "point": 4513,
      "ZON": 4514,
      "asi": 4515,
      "Sat": 4516,
      "ees": 4517,
      "ĠAll": 4518,
      "vac": 4519,
      "uture": 4520,
      "Ġelse": 4521,
      "imum": 4522,
      "ournal": 4523,
      "amples": 4524,
      "åı¸": 4525,
      "ancy": 4526,
      "Ġpres": 4527,
      "Ġlength": 4528,
      "ĠShow": 4529,
      "Ġcases": 4530,
      "CR": 4531,
      "é¡": 4532,
      "rial": 4533,
      "avy": 4534,
      "Ġcomplete": 4535,
      "Ġadv": 4536,
      "Ġcustomer": 4537,
      "Ġkind": 4538,
      "åĽĽå·Ŀ": 4539,
      "JD": 4540,
      "mt": 4541,
      "Ġred": 4542,
      "Ġcontinu": 4543,
      "================": 4544,
      "vate": 4545,
      "ĠWith": 4546,
      "ĠDr": 4547,
      "Ġlearning": 4548,
      "PTH": 4549,
      "è®°å": 4550,
      "aci": 4551,
      "can": 4552,
      "Ġhowever": 4553,
      "Ġmedic": 4554,
      "Ġlevels": 4555,
      "Ãªn": 4556,
      "bor": 4557,
      "Ġtogether": 4558,
      "KO": 4559,
      "èĢ": 4560,
      "Ġsingle": 4561,
      "definitionID": 4562,
      "End": 4563,
      "Ġbio": 4564,
      "è®°å½ķ": 4565,
      "Ġchanges": 4566,
      "rie": 4567,
      "Ð°Ð½Ð¸": 4568,
      "por": 4569,
      "Ġoch": 4570,
      "els": 4571,
      "Ġworking": 4572,
      "llo": 4573,
      "volution": 4574,
      "ape": 4575,
      "ande": 4576,
      "Ġbar": 4577,
      "ensive": 4578,
      "Ġvarying": 4579,
      "''": 4580,
      "greg": 4581,
      "REG": 4582,
      "Ġheld": 4583,
      "tpadmin": 4584,
      "åĬ¡": 4585,
      "ĠTHE": 4586,
      "Ġfull": 4587,
      "dec": 4588,
      "unicip": 4589,
      "Ġviewers": 4590,
      "éĥ¨éĹ¨": 4591,
      "WN": 4592,
      "vist": 4593,
      "urer": 4594,
      "ĠSome": 4595,
      "áºŃ": 4596,
      "åħ³": 4597,
      "Ġsubject": 4598,
      "Ġcatalog": 4599,
      "Ġrelation": 4600,
      "Ġbenef": 4601,
      "hib": 4602,
      "oll": 4603,
      "ourne": 4604,
      "MAX": 4605,
      "Ġdue": 4606,
      "Ð¸ÑĢ": 4607,
      "Dis": 4608,
      "AREA": 4609,
      "buff": 4610,
      "MAN": 4611,
      "ĠCont": 4612,
      "ila": 4613,
      "Ġmor": 4614,
      "ĠPhil": 4615,
      "Ġdrawn": 4616,
      "UDY": 4617,
      "DIRE": 4618,
      "Ġreason": 4619,
      "ĠSystem": 4620,
      "Ġbecame": 4621,
      "Ġcolumn": 4622,
      "alvik": 4623,
      "Ġoil": 4624,
      "apt": 4625,
      "ĠDO": 4626,
      "perform": 4627,
      "Ġworks": 4628,
      "Ġtypes": 4629,
      "Dalvik": 4630,
      "ĠReg": 4631,
      "SD": 4632,
      "æº": 4633,
      "Ġwhite": 4634,
      "ä¸Ĭ": 4635,
      "Ġpatients": 4636,
      "YM": 4637,
      "Ġtown": 4638,
      "Ġnotes": 4639,
      "away": 4640,
      "Ø©": 4641,
      "Ġstandard": 4642,
      "Ġrange": 4643,
      "cedure": 4644,
      "Ext": 4645,
      "Ġda": 4646,
      "éĢļ": 4647,
      "è½¬": 4648,
      ")(": 4649,
      "istic": 4650,
      "Ġdef": 4651,
      "issan": 4652,
      "Ġpolic": 4653,
      "lands": 4654,
      "ĠInnoDB": 4655,
      "Ġkeyword": 4656,
      "åħ¬åı¸": 4657,
      "acc": 4658,
      "Ġexpect": 4659,
      "OF": 4660,
      "TAS": 4661,
      "aul": 4662,
      "alleng": 4663,
      "Ġpast": 4664,
      "ficult": 4665,
      "Ġmaking": 4666,
      "Ġusually": 4667,
      "Ġenc": 4668,
      "closed": 4669,
      "mical": 4670,
      "ĠTOP": 4671,
      "erc": 4672,
      "ĠDes": 4673,
      "cia": 4674,
      "ĠâĢĺ": 4675,
      "ĠOne": 4676,
      "ĠLIMIT": 4677,
      "Ġpressure": 4678,
      "ĠPark": 4679,
      "istance": 4680,
      "åĬŁ": 4681,
      "Ġmonths": 4682,
      "Ġdouble": 4683,
      "Event": 4684,
      "NUMBER": 4685,
      "original": 4686,
      "ently": 4687,
      "ĠBrit": 4688,
      "Ġgi": 4689,
      "SA": 4690,
      "wd": 4691,
      "eds": 4692,
      "ĠNUMBER": 4693,
      "Ġflow": 4694,
      "ctions": 4695,
      "Ġdep": 4696,
      "icket": 4697,
      "gres": 4698,
      "sport": 4699,
      "Ġreturns": 4700,
      "Car": 4701,
      "cil": 4702,
      "nor": 4703,
      "igo": 4704,
      "ima": 4705,
      "Ġalong": 4706,
      "curs": 4707,
      "\",-": 4708,
      "lh": 4709,
      "á»ĳ": 4710,
      "ICATION": 4711,
      "Ð¶": 4712,
      "rep": 4713,
      "Ġod": 4714,
      "Ġconditions": 4715,
      "bi": 4716,
      "eria": 4717,
      "limate": 4718,
      "py": 4719,
      "pages": 4720,
      "inc": 4721,
      "Ġbelow": 4722,
      "There": 4723,
      "Ġess": 4724,
      "ETL": 4725,
      "house": 4726,
      "è®¾å¤ĩ": 4727,
      "ŀĭ": 4728,
      "ibility": 4729,
      "played": 4730,
      "ML": 4731,
      "Pe": 4732,
      "za": 4733,
      "aring": 4734,
      "stant": 4735,
      "Ġenim": 4736,
      "Ġshows": 4737,
      "mc": 4738,
      "Ġtook": 4739,
      "Ł¥": 4740,
      "eas": 4741,
      "eting": 4742,
      "Ġexper": 4743,
      "EDIT": 4744,
      "Ð¾Ð³Ð¾": 4745,
      "Ġyang": 4746,
      "STUDY": 4747,
      "Ġlikely": 4748,
      "Ġcommunic": 4749,
      "CTORY": 4750,
      "à¸²à¸": 4751,
      "ology": 4752,
      "xBD": 4753,
      "ä¾": 4754,
      "ĉĠ": 4755,
      ",'/": 4756,
      "Ġreco": 4757,
      "process": 4758,
      "Ġdiscuss": 4759,
      "ç®¡çĲĨ": 4760,
      "Ob": 4761,
      "çĻ»å": 4762,
      "çĻ»å½ķ": 4763,
      "osp": 4764,
      "author": 4765,
      "Ġrespons": 4766,
      "DIRECTORY": 4767,
      "yy": 4768,
      "ç¨": 4769,
      "','{\\\"": 4770,
      "Ġdig": 4771,
      "Ġstation": 4772,
      "Ġeducation": 4773,
      "lied": 4774,
      "upd": 4775,
      "Ġheat": 4776,
      "PROXY": 4777,
      "uZ": 4778,
      "wa": 4779,
      "Ġstudies": 4780,
      "ribut": 4781,
      "CV": 4782,
      "POR": 4783,
      "algaon": 4784,
      "bytes": 4785,
      "What": 4786,
      "\",\"\",\"\",\"\",\"\",\"\",\"\",\"\",\"": 4787,
      "ZONING": 4788,
      ">&": 4789,
      "Ġcamp": 4790,
      "Ġstrong": 4791,
      "åķĨ": 4792,
      "rench": 4793,
      "Ġsimilar": 4794,
      "di": 4795,
      "Ġdone": 4796,
      "limin": 4797,
      "orage": 4798,
      "Ġrate": 4799,
      "åı°": 4800,
      "åĬł": 4801,
      "NCY": 4802,
      "lant": 4803,
      "school": 4804,
      "ino": 4805,
      "unities": 4806,
      "gener": 4807,
      "Ġprevious": 4808,
      "ko": 4809,
      "lished": 4810,
      "Ġfoc": 4811,
      "ĠHH": 4812,
      "Ġheart": 4813,
      "Ġtrack": 4814,
      "æľŁ": 4815,
      "ji": 4816,
      "curity": 4817,
      "tu": 4818,
      "het": 4819,
      "utk": 4820,
      "Ġchampions": 4821,
      "ĠJanuary": 4822,
      "Ġhold": 4823,
      "ĠSchool": 4824,
      "ĠBar": 4825,
      "MENTO": 4826,
      "Ġfeature": 4827,
      "Pr": 4828,
      "STATUS": 4829,
      "Ġlabel": 4830,
      "Ġincrease": 4831,
      "èĭ": 4832,
      "creator": 4833,
      "phil": 4834,
      "ession": 4835,
      "abit": 4836,
      "dept": 4837,
      "Xg": 4838,
      "source": 4839,
      "Ġfive": 4840,
      "Ġthought": 4841,
      "ready": 4842,
      "=>": 4843,
      "care": 4844,
      "most": 4845,
      "wrap": 4846,
      "Ġpage": 4847,
      "weight": 4848,
      ")_": 4849,
      "CI": 4850,
      "reen": 4851,
      "ĠAct": 4852,
      "iforn": 4853,
      "æĸ¹": 4854,
      "Ġneeds": 4855,
      "è¿Ĳ": 4856,
      "Ġvarious": 4857,
      "(),": 4858,
      "Ġseen": 4859,
      "classification": 4860,
      "Add": 4861,
      "Ġpotential": 4862,
      "_)": 4863,
      "Ġnisi": 4864,
      "rest": 4865,
      "ente": 4866,
      "alter": 4867,
      "éĸ": 4868,
      "ĠTHEN": 4869,
      "Ġfish": 4870,
      "Com": 4871,
      "days": 4872,
      "rown": 4873,
      "Ġdifficult": 4874,
      "categ": 4875,
      "Ġdam": 4876,
      "Ġopponents": 4877,
      "vistas": 4878,
      "/+": 4879,
      "gi": 4880,
      "Ġmass": 4881,
      "ĠĠĠĠĠĠĠĠĠĠĠĠĠĠĠĠĠĠĠĠĠĠĠ": 4882,
      "Ġunique": 4883,
      "exec": 4884,
      "CM": 4885,
      "Kh": 4886,
      "PH": 4887,
      "orders": 4888,
      "Val": 4889,
      "Ġturn": 4890,
      "Ġfast": 4891,
      "cha": 4892,
      "ĠHo": 4893,
      "æ¹ĸ": 4894,
      "pecially": 4895,
      "ifornia": 4896,
      "ZE": 4897,
      "Ġsuper": 4898,
      "esian": 4899,
      "Ġrequired": 4900,
      "sdk": 4901,
      "Ġsignificant": 4902,
      "Ġremain": 4903,
      "Ġstage": 4904,
      "å®ģ": 4905,
      "groups": 4906,
      "Ġindic": 4907,
      "STO": 4908,
      "}]',": 4909,
      "grade": 4910,
      "Ġdeveloped": 4911,
      "ZS": 4912,
      "gment": 4913,
      "alam": 4914,
      "Ġgive": 4915,
      "lief": 4916,
      "FIX": 4917,
      "Web": 4918,
      "Ġexpos": 4919,
      "ĠAR": 4920,
      "Ġlisted": 4921,
      "Ġ'(": 4922,
      "Ġwp": 4923,
      "ention": 4924,
      "ried": 4925,
      "Ġblock": 4926,
      "Ġalways": 4927,
      "Ġapplication": 4928,
      "Ġlet": 4929,
      "Ġacc": 4930,
      "ĠDecember": 4931,
      "Ġknowledge": 4932,
      "GRANT": 4933,
      "ynamic": 4934,
      "minist": 4935,
      "Ġlive": 4936,
      "ruoyi": 4937,
      "Ġexpress": 4938,
      ":\\": 4939,
      "jp": 4940,
      "ny": 4941,
      "Ġfund": 4942,
      "Ġfriend": 4943,
      "HER": 4944,
      "Ġofficial": 4945,
      "nodejs": 4946,
      "hb": 4947,
      "ouch": 4948,
      "ceso": 4949,
      "Ġtransfer": 4950,
      "rss": 4951,
      "Updated": 4952,
      "åķĬåķĬ": 4953,
      "Ġann": 4954,
      "Ġshare": 4955,
      "ike": 4956,
      "Ġlargest": 4957,
      "æĹıèĩªæ²»": 4958,
      "Sys": 4959,
      "Ġpostgres": 4960,
      "Ġactivity": 4961,
      "/','','": 4962,
      "CATEGOR": 4963,
      "etic": 4964,
      "anger": 4965,
      "æĹ¥": 4966,
      "Rate": 4967,
      "Wang": 4968,
      "Ġpack": 4969,
      "unit": 4970,
      "Ġenough": 4971,
      "eptember": 4972,
      "Ġimpact": 4973,
      "Satara": 4974,
      "éĸĵ": 4975,
      "SYN": 4976,
      "Yes": 4977,
      "Ġfurther": 4978,
      "Ġeither": 4979,
      "android": 4980,
      "VI": 4981,
      "tournament": 4982,
      "zz": 4983,
      "Ġnumbers": 4984,
      "transfer": 4985,
      "Ġabs": 4986,
      "ula": 4987,
      "selves": 4988,
      "Ġdraws": 4989,
      "GF": 4990,
      "label": 4991,
      "ti": 4992,
      "ĠCenter": 4993,
      "roy": 4994,
      "asc": 4995,
      "Ġnh": 4996,
      "Ġmedical": 4997,
      "IVERS": 4998,
      "Acceso": 4999,
      "subdivision": 5000,
      "Oj": 5001,
      "dropped": 5002,
      "nickname": 5003,
      "Ġfuture": 5004,
      "asing": 5005,
      "tele": 5006,
      "bridge": 5007,
      "()',": 5008,
      "ZZ": 5009,
      "ened": 5010,
      "Ġprob": 5011,
      "property": 5012,
      "ona": 5013,
      "years": 5014,
      "sg": 5015,
      "Ġwr": 5016,
      "ander": 5017,
      "images": 5018,
      "Ġask": 5019,
      "ĠCOUNTRY": 5020,
      "chie": 5021,
      "cko": 5022,
      "stitute": 5023,
      "Ġeffects": 5024,
      "TUR": 5025,
      "osed": 5026,
      "ims": 5027,
      "å±ħ": 5028,
      "Ġdrug": 5029,
      "With": 5030,
      "crowd": 5031,
      "Ġpublished": 5032,
      "HPO": 5033,
      "ĠNor": 5034,
      "Ġ'[{\"": 5035,
      "hesis": 5036,
      "Ġscience": 5037,
      "Ġpark": 5038,
      "ertific": 5039,
      "cm": 5040,
      "xv": 5041,
      "health": 5042,
      "Ġcover": 5043,
      "ï¼Ī": 5044,
      "Ġinternational": 5045,
      "Ġinflu": 5046,
      "Æ¡n": 5047,
      "DH": 5048,
      "kg": 5049,
      "itate": 5050,
      "Ġtoday": 5051,
      "ĠShe": 5052,
      "ĠWhere": 5053,
      "Ġresearchers": 5054,
      "Ġindividual": 5055,
      "Moz": 5056,
      "lot": 5057,
      "ĠPar": 5058,
      "Ġaccept": 5059,
      "KJ": 5060,
      "Ġoffer": 5061,
      "Ġdepend": 5062,
      "Ġalready": 5063,
      "UNIVERS": 5064,
      "æĢģ": 5065,
      "TT": 5066,
      "vin": 5067,
      "Ġ'$": 5068,
      "ĠMc": 5069,
      "Ġresources": 5070,
      "ife": 5071,
      "ki": 5072,
      "Ġment": 5073,
      "ederal": 5074,
      "Ġbusiness": 5075,
      "ï¼ī": 5076,
      "ãĥ¼": 5077,
      "Items": 5078,
      "cel": 5079,
      "ITION": 5080,
      "Ġsymp": 5081,
      "Ġreported": 5082,
      "();": 5083,
      "Title": 5084,
      "Ĥ¨": 5085,
      "ĠHis": 5086,
      "MB": 5087,
      "Ġprotect": 5088,
      "How": 5089,
      "ÑĦ": 5090,
      "VIS": 5091,
      "gold": 5092,
      "won": 5093,
      "ony": 5094,
      "ĠMarch": 5095,
      "Ġmaint": 5096,
      "Ġarch": 5097,
      "attle": 5098,
      "flo": 5099,
      "éĤ": 5100,
      "left": 5101,
      "sss": 5102,
      "GA": 5103,
      "Ġmo": 5104,
      "ĠSte": 5105,
      "ourse": 5106,
      "Ġissue": 5107,
      "wr": 5108,
      "Ġdat": 5109,
      "ANCE": 5110,
      "CATEGORIES": 5111,
      "Ġsyn": 5112,
      "Ġcartesian": 5113,
      "English": 5114,
      "more": 5115,
      "Ġpercentage": 5116,
      "æµ·": 5117,
      "ĠApril": 5118,
      "-',": 5119,
      "Ġglobal": 5120,
      "ĠII": 5121,
      "ĠGecko": 5122,
      "je": 5123,
      "ynt": 5124,
      "Ã¬": 5125,
      "HU": 5126,
      "bra": 5127,
      "join": 5128,
      "Ġquestion": 5129,
      "Ã³n": 5130,
      "UNIVERSAL": 5131,
      "Bh": 5132,
      "Ġsouth": 5133,
      "Ġargs": 5134,
      "pan": 5135,
      "zo": 5136,
      "Ġlimit": 5137,
      "onda": 5138,
      "Ġeffective": 5139,
      "Mozilla": 5140,
      "çĬ": 5141,
      "itiz": 5142,
      "ĠSan": 5143,
      "ĠMy": 5144,
      "Unit": 5145,
      "å¹³": 5146,
      "ĠQuantity": 5147,
      "ffffff": 5148,
      "+/": 5149,
      ".)": 5150,
      "down": 5151,
      "Ġtw": 5152,
      "anuary": 5153,
      "unch": 5154,
      "ĠOWNER": 5155,
      "KA": 5156,
      "onze": 5157,
      "Ġcur": 5158,
      "Ġpartner": 5159,
      "ocirc": 5160,
      "åĪĽå»º": 5161,
      "Ð½Ð°": 5162,
      "Ġforeign": 5163,
      "((": 5164,
      "Che": 5165,
      "ĠJapan": 5166,
      "NL": 5167,
      "rea": 5168,
      "Ġpen": 5169,
      "Ġunde": 5170,
      "ĠPri": 5171,
      "Ġng": 5172,
      "Ġrecommend": 5173,
      "\\\":[": 5174,
      "Ġtaken": 5175,
      "Ġsed": 5176,
      "ĠBy": 5177,
      "aging": 5178,
      "Ð»Ñı": 5179,
      "Ġgoing": 5180,
      "caec": 5181,
      "ÑģÑĤÐ²": 5182,
      "èī": 5183,
      "atan": 5184,
      "ĠNovember": 5185,
      "Ġrather": 5186,
      "ĠAmerica": 5187,
      "Ġespecially": 5188,
      "Ent": 5189,
      "WF": 5190,
      "æĥ": 5191,
      "Ġ==": 5192,
      "Kar": 5193,
      "dn": 5194,
      "lc": 5195,
      "las": 5196,
      "ĠCL": 5197,
      "eding": 5198,
      "irm": 5199,
      "Ġwhy": 5200,
      "desc": 5201,
      "Ġodio": 5202,
      "asons": 5203,
      "osis": 5204,
      "Ġdecision": 5205,
      "Ġevidence": 5206,
      "Ġfail": 5207,
      "NAMES": 5208,
      "ĠResearch": 5209,
      "Ġwhether": 5210,
      "æģ": 5211,
      "Ġtarget": 5212,
      "\\\"}',": 5213,
      "ĠHigh": 5214,
      "Ġitself": 5215,
      "ĠHealth": 5216,
      "Ġath": 5217,
      "ombre": 5218,
      "Ġgrand": 5219,
      "dp": 5220,
      "chan": 5221,
      "å®¶å±ħ": 5222,
      "Ġacross": 5223,
      "tenant": 5224,
      "bum": 5225,
      "Ùģ": 5226,
      "Ġtie": 5227,
      "ĠSu": 5228,
      "Ġcapacity": 5229,
      "Ġanalysis": 5230,
      "sn": 5231,
      "ses": 5232,
      "tour": 5233,
      "Ġhours": 5234,
      "ades": 5235,
      "ulations": 5236,
      "Ġplants": 5237,
      "PU": 5238,
      "ç¤": 5239,
      "internal": 5240,
      "Ġbase": 5241,
      "RICT": 5242,
      "ÑĨÐ¸": 5243,
      "ges": 5244,
      "yb": 5245,
      "Ġvit": 5246,
      "Ġintro": 5247,
      "AH": 5248,
      "å½": 5249,
      "Ġsent": 5250,
      "arr": 5251,
      "ĠRo": 5252,
      "kan": 5253,
      "Ġhalf": 5254,
      "nder": 5255,
      "Ġcomputer": 5256,
      "ĠDiscount": 5257,
      "Ġfall": 5258,
      "Ġbrain": 5259,
      "Ġliving": 5260,
      "ĠInvoice": 5261,
      "Ġelection": 5262,
      "Ġclose": 5263,
      "chedule": 5264,
      ":\\\"\\\";": 5265,
      "Ġminus": 5266,
      "appro": 5267,
      "ashington": 5268,
      "FO": 5269,
      "Ġhref": 5270,
      "ova": 5271,
      "å¼Ģ": 5272,
      "updater": 5273,
      "ĠWRITE": 5274,
      "),('": 5275,
      "Ġsepar": 5276,
      "check": 5277,
      "Phone": 5278,
      "Fi": 5279,
      "File": 5280,
      "hydro": 5281,
      "yr": 5282,
      "ĠAli": 5283,
      "ordin": 5284,
      "Ġchalleng": 5285,
      "bot": 5286,
      "Ġupon": 5287,
      "oodi": 5288,
      "æĸĩä»¶": 5289,
      "Ġphysical": 5290,
      "åĳĺ": 5291,
      "æĻºèĥ½å®¶å±ħ": 5292,
      ">=": 5293,
      "jun": 5294,
      "Ġcup": 5295,
      "äº§": 5296,
      "medi": 5297,
      "Ġrelative": 5298,
      "Asia": 5299,
      "Ġgrowth": 5300,
      "big": 5301,
      "erg": 5302,
      "ĠWest": 5303,
      "limit": 5304,
      "Ġdepartment": 5305,
      "UNLOCK": 5306,
      "rollment": 5307,
      "Ġbreak": 5308,
      "jj": 5309,
      "SCHE": 5310,
      "mployee": 5311,
      "EXEC": 5312,
      "lean": 5313,
      "wards": 5314,
      "Ġmodern": 5315,
      "Ġbroad": 5316,
      "Ġemail": 5317,
      "Ġsoftware": 5318,
      "BN": 5319,
      "Ġreally": 5320,
      "Ġneg": 5321,
      "Ġlocated": 5322,
      "offset": 5323,
      "UTE": 5324,
      "Ġdefin": 5325,
      "vention": 5326,
      "Ġregular": 5327,
      "Ġcombin": 5328,
      "Ġactivities": 5329,
      "Count": 5330,
      "TEXT": 5331,
      "Ġwide": 5332,
      "ested": 5333,
      "Ġmedals": 5334,
      "Ġaddition": 5335,
      "æĪĲåĬŁ": 5336,
      "Vw": 5337,
      "sen": 5338,
      "Ġalt": 5339,
      "Ġplaces": 5340,
      "DT": 5341,
      "Ġ\\": 5342,
      "ĠHome": 5343,
      "izing": 5344,
      "Dr": 5345,
      ",'','": 5346,
      "ĠData": 5347,
      "Ġsoci": 5348,
      "Ġinstitution": 5349,
      "ops": 5350,
      "prefix": 5351,
      "Gu": 5352,
      "Â²": 5353,
      "Ġtries": 5354,
      "ideo": 5355,
      "ĠCollege": 5356,
      "toms": 5357,
      "Ġbehav": 5358,
      "InvoiceID": 5359,
      "ĠInvoiceItems": 5360,
      "Ġrelated": 5361,
      "ĠØ¨": 5362,
      "Ã§": 5363,
      "race": 5364,
      "á»ģ": 5365,
      "Ġmarket": 5366,
      "éķ": 5367,
      "RESS": 5368,
      "Ġmicro": 5369,
      "vember": 5370,
      "ISAM": 5371,
      "types": 5372,
      "NHO": 5373,
      "Ġcondition": 5374,
      "DP": 5375,
      "mic": 5376,
      "tz": 5377,
      "ters": 5378,
      "abled": 5379,
      "Ġtran": 5380,
      "xim": 5381,
      "ĠAdd": 5382,
      "store": 5383,
      "winner": 5384,
      "ĠĠĠĠĠĠĠĠĠĠĠĠĠĠĠĠĠĠĠĠĠĠĠĠĠĠĠĠĠĠĠĠĠĠĠĠĠĠĠĠĠĠĠĠĠĠĠĠĠĠĠĠĠĠĠĠĠĠĠĠĠĠĠĠĠĠĠĠĠĠĠĠĠĠĠĠĠĠĠĠĠĠĠĠĠĠĠĠĠĠĠĠĠĠĠĠĠĠĠĠĠĠĠĠĠĠĠĠĠĠĠĠĠĠĠĠĠĠĠĠĠĠĠĠĠĠĠĠĠĠĠĠĠĠĠĠĠĠĠĠĠĠĠĠĠĠĠĠĠĠĠĠĠĠĠĠĠĠĠĠĠĠĠĠĠĠĠĠĠĠĠĠĠĠĠĠĠĠĠĠĠĠĠĠĠĠĠĠĠĠĠĠĠĠĠĠĠĠĠĠĠĠĠĠĠĠĠĠĠĠĠĠĠĠĠĠĠĠĠĠĠĠĠĠĠĠĠĠĠĠĠĠĠĠĠĠĠĠĠĠĠĠĠĠĠĠĠĠĠĠĠĠĠĠĠĠĠĠĠĠĠĠĠĠĠĠĠĠĠĠĠĠĠĠĠĠĠĠĠĠĠĠĠĠĠĠĠĠĠĠĠĠĠĠĠĠĠĠĠĠĠĠĠĠĠĠĠĠĠĠĠĠĠĠĠĠĠĠĠĠĠĠĠĠĠĠĠĠĠĠĠĠĠĠĠĠĠĠĠĠĠĠĠĠĠĠĠĠĠĠĠĠĠĠĠĠĠĠĠĠĠĠĠĠĠĠĠĠĠĠĠĠĠĠĠĠĠĠĠĠĠĠĠĠĠĠĠĠĠĠĠĠĠĠĠĠĠĠĠĠĠĠĠĠĠĠĠĠĠĠĠĠĠĠĠĠĠĠĠĠĠĠĠĠĠĠĠĠĠĠĠĠĠĠĠĠĠĠĠĠĠĠĠĠĠĠĠĠĠĠĠĠĠĠĠĠĠĠĠĠĠĠĠĠĠĠĠĠĠĠĠĠĠĠĠĠĠĠĠĠĠĠĠĠĠĠĠĠĠĠĠĠĠĠĠĠĠĠĠĠĠĠĠĠĠĠĠĠĠĠĠĠ": 5385,
      "ç¨ĭ": 5386,
      "hol": 5387,
      "qq": 5388,
      "ali": 5389,
      "Ġsearch": 5390,
      "RÃ¸": 5391,
      "uals": 5392,
      "UTC": 5393,
      "())": 5394,
      "AO": 5395,
      "SH": 5396,
      "assists": 5397,
      "Ð°Ð±": 5398,
      "Ġfeel": 5399,
      "migrations": 5400,
      "SY": 5401,
      "Ġnamed": 5402,
      "Ġsynt": 5403,
      "ville": 5404,
      "mot": 5405,
      "ĠTell": 5406,
      "atem": 5407,
      "ocr": 5408,
      "Ġmeasure": 5409,
      "You": 5410,
      "Â°": 5411,
      "ç¦": 5412,
      "del": 5413,
      "COMMIT": 5414,
      "En": 5415,
      "åĴ": 5416,
      "Ġcame": 5417,
      "Ġiure": 5418,
      "atae": 5419,
      "Ġprincip": 5420,
      "çĬ¶": 5421,
      "Â·": 5422,
      "Ġnob": 5423,
      "oment": 5424,
      "ĠASC": 5425,
      "è¿Ļ": 5426,
      "Ġfamil": 5427,
      "Ġways": 5428,
      "Ġgreen": 5429,
      "Ġvolupt": 5430,
      "ĠThat": 5431,
      "Ġcontact": 5432,
      "RÃ¸dt": 5433,
      "Ak": 5434,
      "Ġmedia": 5435,
      "Ġtro": 5436,
      "iding": 5437,
      "ĠEarth": 5438,
      "isa": 5439,
      "Ġonce": 5440,
      "grid": 5441,
      "ĠServer": 5442,
      "ĠEd": 5443,
      "udio": 5444,
      "Ġparts": 5445,
      "çĬ¶æĢģ": 5446,
      "XX": 5447,
      "epe": 5448,
      "fi": 5449,
      "ford": 5450,
      "Ġ);": 5451,
      "Ġsun": 5452,
      "Ġfun": 5453,
      "ĠPM": 5454,
      "ellow": 5455,
      "bert": 5456,
      "SM": 5457,
      "task": 5458,
      "reme": 5459,
      "usu": 5460,
      "Ġquia": 5461,
      "rev": 5462,
      "uly": 5463,
      "Ġkh": 5464,
      "Ġattack": 5465,
      "áº¥n": 5466,
      "Rep": 5467,
      "vd": 5468,
      "æĵ": 5469,
      "ĠOpponent": 5470,
      "ĠDistrict": 5471,
      "Ġlabor": 5472,
      "iving": 5473,
      "Ġleading": 5474,
      "Ġpor": 5475,
      "Ġ\"+": 5476,
      "Shi": 5477,
      "Ġchemical": 5478,
      "ICAgICAgICAgICAgICAgICAgICAgICAgICAgICAgICAgICAgICAgICAgICAgICAg": 5479,
      "Ġmanagement": 5480,
      "PP": 5481,
      "UI": 5482,
      "cache": 5483,
      "demo": 5484,
      "Ġru": 5485,
      "comm": 5486,
      "Ġrepudi": 5487,
      "Ð°Ð¼": 5488,
      "Ġcapital": 5489,
      "German": 5490,
      "Ġhistor": 5491,
      "Ġconc": 5492,
      "ube": 5493,
      "Ġanimals": 5494,
      "Command": 5495,
      "files": 5496,
      "ante": 5497,
      "COUNT": 5498,
      "arga": 5499,
      "Äĥ": 5500,
      "ĠCent": 5501,
      "Ġfugit": 5502,
      "direct": 5503,
      "Ġcum": 5504,
      "league": 5505,
      "icense": 5506,
      "depart": 5507,
      "rims": 5508,
      "Ġsaepe": 5509,
      "Ġneeded": 5510,
      "details": 5511,
      "pm": 5512,
      "Ġship": 5513,
      "Ġcomplex": 5514,
      "gram": 5515,
      "Ġpopular": 5516,
      "Column": 5517,
      "Am": 5518,
      "Xi": 5519,
      "iáº¿": 5520,
      "visit": 5521,
      "controller": 5522,
      "Ġskin": 5523,
      "è®¾å¤ĩè®°å½ķ": 5524,
      "pid": 5525,
      "ras": 5526,
      "onse": 5527,
      "reed": 5528,
      "message": 5529,
      "ĠJune": 5530,
      "Ġansw": 5531,
      "ANG": 5532,
      "ĠInc": 5533,
      "Ġaggreg": 5534,
      "personal": 5535,
      "pol": 5536,
      "Ġbit": 5537,
      "ĠPol": 5538,
      "hicle": 5539,
      "Ġbeatae": 5540,
      "Ġwhole": 5541,
      "iditate": 5542,
      "ameter": 5543,
      "teen": 5544,
      "Ġthough": 5545,
      "timezone": 5546,
      "Ġdolorum": 5547,
      "++": 5548,
      "None": 5549,
      "Ġbal": 5550,
      "Ġquestions": 5551,
      "Ġrepudiandae": 5552,
      "Ro": 5553,
      "éħ": 5554,
      "rece": 5555,
      "isl": 5556,
      "ĠHar": 5557,
      "actions": 5558,
      "Ġservices": 5559,
      "Ġmusic": 5560,
      "cimus": 5561,
      "width": 5562,
      "utions": 5563,
      "aker": 5564,
      "Ġprec": 5565,
      "Æ°Æ¡": 5566,
      "Ġdistinctio": 5567,
      "inese": 5568,
      "Ġcenter": 5569,
      "TENTS": 5570,
      "Ġducimus": 5571,
      "caecati": 5572,
      "Ġimage": 5573,
      "ido": 5574,
      "Ġiusto": 5575,
      "resa": 5576,
      "Ġprovided": 5577,
      "party": 5578,
      "hler": 5579,
      "Bu": 5580,
      "LS": 5581,
      "UK": 5582,
      "ults": 5583,
      "profile": 5584,
      "Ġaccording": 5585,
      "Ġrelig": 5586,
      "çĻ»": 5587,
      "ĠInternational": 5588,
      "Wi": 5589,
      "XN": 5590,
      "block": 5591,
      "Ġnorth": 5592,
      "eta": 5593,
      "Ġgas": 5594,
      "ĠIllo": 5595,
      "Ġmatter": 5596,
      "ĠObcaecati": 5597,
      "Ġcustomers": 5598,
      "ĠCupiditate": 5599,
      "GROUP": 5600,
      "function": 5601,
      "sales": 5602,
      "æĤ¨": 5603,
      "allow": 5604,
      "Ġdest": 5605,
      "ÐµÐ²": 5606,
      "Ð¸Ñĩ": 5607,
      "clus": 5608,
      "duction": 5609,
      "Ġdistance": 5610,
      "åı¯": 5611,
      "'re": 5612,
      "Go": 5613,
      "eff": 5614,
      "fac": 5615,
      "æ¬": 5616,
      "Ġtor": 5617,
      "Ã´ng": 5618,
      "MD": 5619,
      "ken": 5620,
      "à§": 5621,
      "æ·": 5622,
      "anies": 5623,
      "ĠNumber": 5624,
      "Ġissues": 5625,
      "ixed": 5626,
      "sv": 5627,
      "story": 5628,
      "local": 5629,
      "ĠPoints": 5630,
      "HY": 5631,
      "amb": 5632,
      "æĵį": 5633,
      "TS": 5634,
      "Zh": 5635,
      "].": 5636,
      "sr": 5637,
      "ouncil": 5638,
      "Im": 5639,
      "TABLE": 5640,
      "Ġtur": 5641,
      "atur": 5642,
      "ising": 5643,
      "structure": 5644,
      "Book": 5645,
      "Ġmountain": 5646,
      "lare": 5647,
      "application": 5648,
      "paylist": 5649,
      "PRIMARY": 5650,
      "bronze": 5651,
      "Ġeconomic": 5652,
      "Ġsix": 5653,
      "á»ĵ": 5654,
      "Ġthemselves": 5655,
      "ç±»å": 5656,
      "almores": 5657,
      "EPS": 5658,
      "èı": 5659,
      "Ġpie": 5660,
      "ĠSch": 5661,
      "resh": 5662,
      "à¦¾": 5663,
      "ĠAugust": 5664,
      "ipo": 5665,
      "IEW": 5666,
      "plan": 5667,
      "çŃī": 5668,
      "PREFIX": 5669,
      "Ġë": 5670,
      "Ġau": 5671,
      "CONT": 5672,
      "Ġdiscover": 5673,
      "Ġextra": 5674,
      ":\"": 5675,
      "é¾": 5676,
      "Ġdeli": 5677,
      "FFE": 5678,
      "ĠALL": 5679,
      "CKET": 5680,
      "ranc": 5681,
      "yandex": 5682,
      "Ġbank": 5683,
      "Ġhar": 5684,
      "WV": 5685,
      "lat": 5686,
      "¢ŀ": 5687,
      "LEFT": 5688,
      "Ġgain": 5689,
      "ĠMus": 5690,
      "html": 5691,
      "Ġroad": 5692,
      "msg": 5693,
      "Ġincreased": 5694,
      "philhealth": 5695,
      "When": 5696,
      "ĠÑĩ": 5697,
      "arter": 5698,
      "ç±»åŀĭ": 5699,
      "Kit": 5700,
      "LD": 5701,
      "Ġ]": 5702,
      "ç§°": 5703,
      "ĠCountry": 5704,
      "æĵįä½ľ": 5705,
      "Task": 5706,
      "rr": 5707,
      "Ġur": 5708,
      "lements": 5709,
      "ĠTotal": 5710,
      "ĠAng": 5711,
      "Ġstri": 5712,
      "cret": 5713,
      "Ġprice": 5714,
      "éĻĨ": 5715,
      "Ġestablished": 5716,
      "èī²": 5717,
      "ker": 5718,
      "èµ": 5719,
      "aya": 5720,
      "access": 5721,
      "Thá»ĭ": 5722,
      "empresa": 5723,
      "Str": 5724,
      "oria": 5725,
      "Ġmind": 5726,
      "ĠGu": 5727,
      "ights": 5728,
      "cn": 5729,
      "aches": 5730,
      "çłĶ": 5731,
      "Bec": 5732,
      "Yoy": 5733,
      "Ġpaper": 5734,
      "Ġmakes": 5735,
      "cope": 5736,
      "ĠJew": 5737,
      "formed": 5738,
      "Ġrecogn": 5739,
      "ÐºÐ¸": 5740,
      "æĢ§": 5741,
      "wood": 5742,
      "rebounds": 5743,
      "length": 5744,
      "ĠMon": 5745,
      "keyword": 5746,
      "background": 5747,
      "Ġscientists": 5748,
      "ulated": 5749,
      "Ġther": 5750,
      "ĠSeptember": 5751,
      "Ġconsidered": 5752,
      "Ġclimate": 5753,
      "Ġwor": 5754,
      "Ġdbo": 5755,
      "ĠOF": 5756,
      "ĠOctober": 5757,
      "ĠME": 5758,
      "Ġconduct": 5759,
      "Ġquality": 5760,
      "ICS": 5761,
      "required": 5762,
      "Qoq": 5763,
      "Get": 5764,
      "removed": 5765,
      "ĠFUN": 5766,
      "isc": 5767,
      "ĠDATA": 5768,
      "hdmf": 5769,
      "å¿«ä»¶": 5770,
      "Ġindustry": 5771,
      "Ġcandidates": 5772,
      "Hz": 5773,
      "Zp": 5774,
      "ZSo": 5775,
      "middle": 5776,
      "Ġupdated": 5777,
      "AAAAAAAAAAAAAAAAAAAAAAAAAAAAAAAA": 5778,
      "~~": 5779,
      "ĠRank": 5780,
      "endent": 5781,
      "ustain": 5782,
      "Ġsurv": 5783,
      "Ġdifference": 5784,
      "AQ": 5785,
      "Ġfire": 5786,
      "Ġwild": 5787,
      "Ġrele": 5788,
      "Ġspeed": 5789,
      "ircraft": 5790,
      "Ġmatches": 5791,
      "PerUnit": 5792,
      "æŃ£": 5793,
      "Ġimprove": 5794,
      "NY": 5795,
      "SK": 5796,
      "URE": 5797,
      "](": 5798,
      "ball": 5799,
      "yo": 5800,
      "ĠAfter": 5801,
      "uto": 5802,
      "ublish": 5803,
      "ildren": 5804,
      "Ġarticle": 5805,
      "Ġsitu": 5806,
      "Ġestim": 5807,
      "Ġapproach": 5808,
      "Ġenvironmental": 5809,
      "water": 5810,
      "Ġmut": 5811,
      "cient": 5812,
      "Ġrider": 5813,
      "valid": 5814,
      "SCS": 5815,
      "ä¼ļ": 5816,
      "nagar": 5817,
      "<<": 5818,
      "kh": 5819,
      "vb": 5820,
      "å¥": 5821,
      "åĲ¦": 5822,
      ".\\": 5823,
      "inf": 5824,
      "Ġcrowd": 5825,
      "itz": 5826,
      "ĠDo": 5827,
      "ĠTech": 5828,
      "AI": 5829,
      "PAR": 5830,
      "mode": 5831,
      "ĠAnt": 5832,
      "Ġexerc": 5833,
      "COMP": 5834,
      "Ġprovides": 5835,
      "ĠCalifornia": 5836,
      "Æ°Æ¡ng": 5837,
      "é¾Ļ": 5838,
      "vi": 5839,
      "Ġaction": 5840,
      "Ġdetail": 5841,
      "IDS": 5842,
      "ipment": 5843,
      "Ġmaximum": 5844,
      "yj": 5845,
      "INA": 5846,
      "ables": 5847,
      "Ġagain": 5848,
      "Ġphot": 5849,
      "å¦": 5850,
      "Ġnature": 5851,
      "useum": 5852,
      "Ġcommit": 5853,
      "BUCKET": 5854,
      "Last": 5855,
      "ĠSet": 5856,
      "Ġelected": 5857,
      "Ahmed": 5858,
      "EndPoint": 5859,
      "koodi": 5860,
      "made": 5861,
      "ivo": 5862,
      "intoala": 5863,
      "Ġconstructor": 5864,
      "Ġmerchant": 5865,
      "schema": 5866,
      "ram": 5867,
      "ĠDI": 5868,
      "CP": 5869,
      "Ur": 5870,
      "lines": 5871,
      "Ġlot": 5872,
      "force": 5873,
      "Ø§Ø": 5874,
      "ATAMENTO": 5875,
      "lap": 5876,
      "Ġdeb": 5877,
      "Ġentire": 5878,
      "ĠJuly": 5879,
      "birth": 5880,
      "non": 5881,
      "ìĿ": 5882,
      "Ġfig": 5883,
      "Ġborn": 5884,
      "unn": 5885,
      "Ġsection": 5886,
      "Ġsimple": 5887,
      "åĴĮ": 5888,
      "tm": 5889,
      "åī": 5890,
      "Ġtour": 5891,
      "Ġdeg": 5892,
      "icha": 5893,
      "Ð¸Ð»": 5894,
      "ADMIN": 5895,
      "Ġsymptoms": 5896,
      "'));": 5897,
      "ĠChe": 5898,
      "ĠAtt": 5899,
      "TOO": 5900,
      "Ġbegan": 5901,
      "ÑģÑı": 5902,
      "Ġstring": 5903,
      "CLASS": 5904,
      "æĺİ": 5905,
      "bal": 5906,
      "Ĭå¤©": 5907,
      "Ġtables": 5908,
      "Ġnone": 5909,
      "ĠĠĠĠĠĠĠĠĠĠĠĠĠĠĠĠĠ": 5910,
      "å¤ļ": 5911,
      "Ġprograms": 5912,
      "Ġaggregate": 5913,
      "çłĶåıĳ": 5914,
      "JO": 5915,
      "VA": 5916,
      "stid": 5917,
      "oson": 5918,
      "Ġconstraint": 5919,
      "LU": 5920,
      "ĠPre": 5921,
      "å·¥": 5922,
      "ronic": 5923,
      "move": 5924,
      "ds": 5925,
      "èģ": 5926,
      "ĠÙħ": 5927,
      "rew": 5928,
      "Ġvict": 5929,
      "ĠKing": 5930,
      "board": 5931,
      "ä»¥": 5932,
      "winning": 5933,
      "åºĵ": 5934,
      "Ġoccur": 5935,
      ":{}',": 5936,
      "ynthesis": 5937,
      "Mas": 5938,
      "åģ": 5939,
      "reet": 5940,
      "Ġtransmission": 5941,
      "But": 5942,
      "Ġachie": 5943,
      "ĠChina": 5944,
      "Ġperformance": 5945,
      "itcher": 5946,
      "Ġnecessary": 5947,
      "Ge": 5948,
      "NR": 5949,
      "WR": 5950,
      "target": 5951,
      "tech": 5952,
      "ĠÐ°": 5953,
      "á»§": 5954,
      "Ġfugiat": 5955,
      "NTE": 5956,
      "UDE": 5957,
      "cg": 5958,
      "lit": 5959,
      "lection": 5960,
      "Status": 5961,
      "rows": 5962,
      "Ġsett": 5963,
      "ãĢĳ',": 5964,
      "Ne": 5965,
      "Ġpath": 5966,
      "Ġfav": 5967,
      "Ġled": 5968,
      "employment": 5969,
      "IATT": 5970,
      "Ġmag": 5971,
      "igation": 5972,
      "shopids": 5973,
      "utkinto": 5974,
      "éħį": 5975,
      "çĻ»éĻĨ": 5976,
      "}'),": 5977,
      "Ġsources": 5978,
      "Ġborder": 5979,
      "ä¸ļ": 5980,
      "oehler": 5981,
      "inner": 5982,
      "ream": 5983,
      "Ġstory": 5984,
      "Ġproduced": 5985,
      "ashik": 5986,
      "mitted": 5987,
      "Us": 5988,
      "pi": 5989,
      "Ġtalk": 5990,
      "orph": 5991,
      "çĽ®": 5992,
      "ilitary": 5993,
      "çłĶåıĳéĥ¨éĹ¨": 5994,
      "ky": 5995,
      "laced": 5996,
      "Ġtraining": 5997,
      ";;": 5998,
      "vs": 5999,
      "ĠAustral": 6000,
      "Ġever": 6001,
      "IDO": 6002,
      "ango": 6003,
      "áº§": 6004,
      "Ã¬nh": 6005,
      "ged": 6006,
      "qh": 6007,
      "urt": 6008,
      "Ġillum": 6009,
      "Ġexperiment": 6010,
      "Number": 6011,
      "district": 6012,
      "arian": 6013,
      "ouis": 6014,
      "opintoala": 6015,
      "skoehler": 6016,
      "OSLO": 6017,
      "aug": 6018,
      "ĠInter": 6019,
      "ĠScience": 6020,
      "XV": 6021,
      "yah": 6022,
      "Ġali": 6023,
      "Ġforms": 6024,
      "umption": 6025,
      "koulutusala": 6026,
      "éĽ": 6027,
      "Ġ'ãĢĲ": 6028,
      "remark": 6029,
      "Ġregard": 6030,
      "yz": 6031,
      "ano": 6032,
      "ĠImp": 6033,
      "ORPHA": 6034,
      "ĠService": 6035,
      "ause": 6036,
      "vere": 6037,
      "xh": 6038,
      "Ġten": 6039,
      "Ġcard": 6040,
      "Ġbird": 6041,
      "Ġinj": 6042,
      "cott": 6043,
      "quantity": 6044,
      "Ġserver": 6045,
      "MRN": 6046,
      "ĠFK": 6047,
      "ĠMark": 6048,
      "Ġxss": 6049,
      "Ø§Ø±": 6050,
      "åĬ¨": 6051,
      "éĩį": 6052,
      "Ġsure": 6053,
      "Ġwent": 6054,
      "see": 6055,
      "Ġproduce": 6056,
      "ä¸»": 6057,
      "meta": 6058,
      "Ahmednagar": 6059,
      "AIL": 6060,
      "Ġreduce": 6061,
      "rave": 6062,
      "ermanent": 6063,
      "nn": 6064,
      "Ġinst": 6065,
      "ĠTRANS": 6066,
      "IER": 6067,
      "call": 6068,
      "iG": 6069,
      "tc": 6070,
      "vv": 6071,
      "Ð¾Ðº": 6072,
      "Ġinvolved": 6073,
      "ulture": 6074,
      "ando": 6075,
      "oph": 6076,
      "çĶµ": 6077,
      "student": 6078,
      "Person": 6079,
      "jw": 6080,
      "zh": 6081,
      "itam": 6082,
      "Ġyet": 6083,
      "Ġtax": 6084,
      "Ġforce": 6085,
      "ĠMac": 6086,
      "Ġjud": 6087,
      "iction": 6088,
      "Ġquas": 6089,
      "ä»Ĭå¤©": 6090,
      "åŃĺ": 6091,
      "********************************": 6092,
      "KNG": 6093,
      "SU": 6094,
      "achment": 6095,
      "Ġmaterials": 6096,
      "Ġparents": 6097,
      "&#": 6098,
      "fm": 6099,
      "æ¡": 6100,
      "lent": 6101,
      "ival": 6102,
      "Ġopport": 6103,
      "silver": 6104,
      "Ġindepend": 6105,
      "ä»£": 6106,
      "Ġmultip": 6107,
      "IX": 6108,
      "based": 6109,
      "Ġbul": 6110,
      "ends": 6111,
      "component": 6112,
      "äºĨ": 6113,
      "Ġzone": 6114,
      "####": 6115,
      "ĠFirst": 6116,
      "Ġbur": 6117,
      "ĠBC": 6118,
      "Ġdoctor": 6119,
      "ORG": 6120,
      "Ġprovince": 6121,
      "average": 6122,
      "dat": 6123,
      "Ġsing": 6124,
      "Ident": 6125,
      "shift": 6126,
      "List": 6127,
      "NU": 6128,
      "Ġsqu": 6129,
      "ĠTYPE": 6130,
      "ĠVir": 6131,
      "ĠDavid": 6132,
      "Ð°Ðº": 6133,
      "á»©": 6134,
      "Ð½Ð¾": 6135,
      "Ġdesigned": 6136,
      "EQ": 6137,
      "cor": 6138,
      "arden": 6139,
      "aksi": 6140,
      "Ġactually": 6141,
      "Trans": 6142,
      "å¦Ĥ": 6143,
      "tual": 6144,
      "ĠFrench": 6145,
      "ĠNE": 6146,
      "ician": 6147,
      "channel": 6148,
      "Ġattemp": 6149,
      "ÐµÐº": 6150,
      ";<": 6151,
      "ACK": 6152,
      "KK": 6153,
      "Permanent": 6154,
      "fully": 6155,
      "éĶ®": 6156,
      "PUT": 6157,
      "pat": 6158,
      "Ġcr": 6159,
      "lest": 6160,
      "Ġuses": 6161,
      "],[": 6162,
      "è¯·": 6163,
      "åĲįç§°": 6164,
      "æģ¯": 6165,
      "Ġri": 6166,
      "Ġtaking": 6167,
      "aters": 6168,
      "ĠFebruary": 6169,
      "ĠWH": 6170,
      "radial": 6171,
      "Ig": 6172,
      "kes": 6173,
      "Ġpain": 6174,
      "semb": 6175,
      "berg": 6176,
      "Ġquod": 6177,
      "static": 6178,
      "iger": 6179,
      "Ġidea": 6180,
      "clud": 6181,
      "Inserted": 6182,
      "Redirect": 6183,
      "UTCDATE": 6184,
      "ivid": 6185,
      "Ġalmost": 6186,
      "Ġkil": 6187,
      "Ġpolicy": 6188,
      "aque": 6189,
      "mn": 6190,
      "ĠFr": 6191,
      "åºĨ": 6192,
      "á»į": 6193,
      "TRATAMENTO": 6194,
      "å·ŀå¸Ĥ": 6195,
      "kw": 6196,
      "ÙĤ": 6197,
      "Ġcivil": 6198,
      "ropri": 6199,
      "Ġeffic": 6200,
      "çĻ»éĻĨç³»ç»Ł": 6201,
      "Ġentrant": 6202,
      "Ġcentral": 6203,
      "Ġminima": 6204,
      "Ma": 6205,
      "Ġop": 6206,
      "Ġnavn": 6207,
      "ulate": 6208,
      "amount": 6209,
      "ĠDynamic": 6210,
      "Ġsea": 6211,
      "USE": 6212,
      "ĠTV": 6213,
      "Ġpan": 6214,
      "IGGER": 6215,
      "åĪ°": 6216,
      "ĠFUNCTION": 6217,
      "La": 6218,
      "pass": 6219,
      "æ»": 6220,
      "ination": 6221,
      "onom": 6222,
      "reference": 6223,
      "itation": 6224,
      "roles": 6225,
      "Ġinstruct": 6226,
      "ĠBE": 6227,
      "ques": 6228,
      "Ġlokallag": 6229,
      "\\\":{\\\"": 6230,
      "æĿ¥": 6231,
      "andez": 6232,
      "PermanentRedirect": 6233,
      "BO": 6234,
      "band": 6235,
      "Ġreferences": 6236,
      "province": 6237,
      "All": 6238,
      "JU": 6239,
      "PM": 6240,
      "ĠEM": 6241,
      "ISTICS": 6242,
      "Ġtráº¥n": 6243,
      "Ġfounded": 6244,
      "Ġexcepturi": 6245,
      "å¯¹": 6246,
      "ĠDepartment": 6247,
      "Ġmaintain": 6248,
      "First": 6249,
      "pack": 6250,
      "abad": 6251,
      "Ġ`<<": 6252,
      "Ġexec": 6253,
      "Ġshown": 6254,
      "project": 6255,
      "'-',@": 6256,
      "Ġpractice": 6257,
      "AUTO": 6258,
      "LI": 6259,
      "Single": 6260,
      "Ñĳ": 6261,
      "illing": 6262,
      "Certific": 6263,
      "ĠEduc": 6264,
      "Ġens": 6265,
      "fieldID": 6266,
      "aggfieldID": 6267,
      "'::": 6268,
      "Ra": 6269,
      "margin": 6270,
      "å²": 6271,
      "iri": 6272,
      "Ġlane": 6273,
      "Ġord": 6274,
      "Ġintegr": 6275,
      "Ġunderstanding": 6276,
      "atis": 6277,
      "ĠBU": 6278,
      "è®¡": 6279,
      "Ġincludes": 6280,
      "dh": 6281,
      "history": 6282,
      "xia": 6283,
      "Ġpg": 6284,
      "Ġgot": 6285,
      "served": 6286,
      "Ġmechan": 6287,
      "Ġarri": 6288,
      "Ġschools": 6289,
      "Ġprotein": 6290,
      "life": 6291,
      "Ġrock": 6292,
      "Ġability": 6293,
      "ĠPROCE": 6294,
      "RD": 6295,
      "iis": 6296,
      "Ġdump": 6297,
      "going": 6298,
      ">,": 6299,
      "Field": 6300,
      "base": 6301,
      "Ġbios": 6302,
      "HEAD": 6303,
      "Ġidx": 6304,
      "ĠRet": 6305,
      "Æ°á»£": 6306,
      "Ġbooks": 6307,
      "Ġcomes": 6308,
      "GN": 6309,
      "fort": 6310,
      "ĠSY": 6311,
      "Ġquick": 6312,
      "bonus": 6313,
      "Ġmeaning": 6314,
      "æĽ´æĸ°": 6315,
      "è½¬è¿Ĳ": 6316,
      "Ġsense": 6317,
      "iting": 6318,
      "Ġber": 6319,
      "ami": 6320,
      "ria": 6321,
      "Ġdiagn": 6322,
      "TRANS": 6323,
      "Ġvoluptatem": 6324,
      "GS": 6325,
      "vn": 6326,
      "war": 6327,
      "Ġonline": 6328,
      "Ġlonger": 6329,
      "pending": 6330,
      "DURE": 6331,
      "è½¬è¿Ĳä¸Ńå¿ĥ": 6332,
      "EBB": 6333,
      "Map": 6334,
      "è¦": 6335,
      "income": 6336,
      "reason": 6337,
      "lave": 6338,
      "Ġgrad": 6339,
      "æ³ķ": 6340,
      "=>'": 6341,
      "ĠJewish": 6342,
      "Care": 6343,
      "IOT": 6344,
      "Ġå·²": 6345,
      "Ġface": 6346,
      "being": 6347,
      "sum": 6348,
      "ĠSM": 6349,
      "rage": 6350,
      "quen": 6351,
      "Ġimm": 6352,
      "Ġsimply": 6353,
      "Ġchampionship": 6354,
      "Nashik": 6355,
      "SP": 6356,
      "fis": 6357,
      "lost": 6358,
      "Ġnuc": 6359,
      "Ġlog": 6360,
      "aryk": 6361,
      "ecirc": 6362,
      "ĠAlias": 6363,
      "Masaryk": 6364,
      "uh": 6365,
      "Ùĥ": 6366,
      "Ġmiss": 6367,
      "Ġnode": 6368,
      "ĠCOMP": 6369,
      "olh": 6370,
      "GETUTCDATE": 6371,
      "import": 6372,
      "Ġprint": 6373,
      "Ġearth": 6374,
      "barang": 6375,
      "Ġautem": 6376,
      "Ġsus": 6377,
      "ĠSm": 6378,
      "ferend": 6379,
      "structured": 6380,
      "+)": 6381,
      "mk": 6382,
      "Ġprovident": 6383,
      "å¼ı": 6384,
      "Ġnobis": 6385,
      "Gr": 6386,
      "NN": 6387,
      "current": 6388,
      "Ġ'::": 6389,
      "Ġthroughout": 6390,
      "FOREIGN": 6391,
      "Rh": 6392,
      "Yi": 6393,
      "mond": 6394,
      "Ä©": 6395,
      "Ġpole": 6396,
      "Ġwro": 6397,
      "Ġreview": 6398,
      "MED": 6399,
      "ĠGerman": 6400,
      "ires": 6401,
      "ĠInstitute": 6402,
      "Ġacid": 6403,
      "Ġofficiis": 6404,
      "TÃ¢n": 6405,
      "bles": 6406,
      "anh": 6407,
      "ssages": 6408,
      "ĠĠĠĠĠĠĠĠĠĠĠĠĠĠĠĠĠĠĠĠĠĠĠĠĠĠĠĠĠĠĠĠĠĠĠĠĠĠĠ": 6409,
      "nov": 6410,
      "ĠArt": 6411,
      "Ġterms": 6412,
      "Ġmodi": 6413,
      "AU": 6414,
      "DIS": 6415,
      "Gx": 6416,
      "KE": 6417,
      "oacute": 6418,
      "imed": 6419,
      "resource": 6420,
      "IED": 6421,
      "Product": 6422,
      "Ġeveniet": 6423,
      "éĢĴ": 6424,
      "Ġtechn": 6425,
      ">>>>>>>>": 6426,
      "lbourne": 6427,
      "Ø´": 6428,
      "Ġsch": 6429,
      "ises": 6430,
      "arrow": 6431,
      "tect": 6432,
      "ĠĠĠĠĠĠĠĠĠĠĠĠĠĠĠĠĠĠĠĠĠĠĠĠĠĠĠ": 6433,
      "ĠEnd": 6434,
      "Ġrating": 6435,
      "Ġrecus": 6436,
      "Param": 6437,
      "Ho": 6438,
      "gal": 6439,
      "Ġpict": 6440,
      "Ġfuel": 6441,
      "countries": 6442,
      "áº¯": 6443,
      "ãĤĭ": 6444,
      "Ġpersonal": 6445,
      "(@": 6446,
      "Ab": 6447,
      "educt": 6448,
      "ĠRiver": 6449,
      "Ġperferend": 6450,
      "Ġstrateg": 6451,
      "Ġmaxime": 6452,
      "åĲĪ": 6453,
      "Shola": 6454,
      "Ġfacere": 6455,
      "Ġmovement": 6456,
      "Ġrecusandae": 6457,
      "Ġperferendis": 6458,
      "Sholapur": 6459,
      "Ġclean": 6460,
      "orge": 6461,
      "ĠIusto": 6462,
      "Ġitaque": 6463,
      "Ġrows": 6464,
      "Ã¤r": 6465,
      "Ġwebsite": 6466,
      "ĠBritish": 6467,
      ";,": 6468,
      "San": 6469,
      "Ġvers": 6470,
      "ivel": 6471,
      "Ġdemon": 6472,
      "Ġdisp": 6473,
      "ounded": 6474,
      "ĠChar": 6475,
      "Ġreceived": 6476,
      "Ġlate": 6477,
      "Ġteams": 6478,
      "categories": 6479,
      "Su": 6480,
      "ĠPress": 6481,
      "á»¥": 6482,
      "manager": 6483,
      "éĩĳ": 6484,
      "á»ĩn": 6485,
      "ĠAfrican": 6486,
      "Po": 6487,
      "custom": 6488,
      "dm": 6489,
      "Ġthreat": 6490,
      "alls": 6491,
      "áº¡i": 6492,
      "organization": 6493,
      "ocratic": 6494,
      ")<": 6495,
      "WE": 6496,
      "ĠTest": 6497,
      "Ġmit": 6498,
      "Ġstaff": 6499,
      "acion": 6500,
      "Ġaltern": 6501,
      "Ð¾Ð·": 6502,
      "Ġimplement": 6503,
      "Ġdeveloping": 6504,
      "Ġfluid": 6505,
      "Ġreserved": 6506,
      "schedule": 6507,
      "uments": 6508,
      "Ã²": 6509,
      "Ġcurs": 6510,
      "Ġdatabase": 6511,
      "ĠCounty": 6512,
      "Ġprobably": 6513,
      "Ke": 6514,
      "SI": 6515,
      "WH": 6516,
      "ROL": 6517,
      "ani": 6518,
      "IDX": 6519,
      "apy": 6520,
      "avel": 6521,
      "transaksi": 6522,
      "flow": 6523,
      "Ġlab": 6524,
      "ATISTICS": 6525,
      "ĠGame": 6526,
      "iana": 6527,
      "ASON": 6528,
      "IFICATION": 6529,
      "Ġreplace": 6530,
      "display": 6531,
      "ounce": 6532,
      "Ġbasic": 6533,
      "Jalgaon": 6534,
      "lm": 6535,
      "range": 6536,
      "Ġeduc": 6537,
      "trunc": 6538,
      "oking": 6539,
      "cursos": 6540,
      "èıľ": 6541,
      "æŁ¥": 6542,
      "ĠRound": 6543,
      "Ð¾Ð¿": 6544,
      "telephone": 6545,
      "ichael": 6546,
      "unstructured": 6547,
      "permissions": 6548,
      "Ġscored": 6549,
      "Ġmanager": 6550,
      "Ġetc": 6551,
      "unstructuredName": 6552,
      "Gh": 6553,
      "Huy": 6554,
      "PID": 6555,
      "æĮ": 6556,
      "ority": 6557,
      "Ġcoll": 6558,
      "Kolh": 6559,
      "Pa": 6560,
      "orer": 6561,
      "union": 6562,
      "ĠPosition": 6563,
      "illiam": 6564,
      "ĠWeb": 6565,
      "align": 6566,
      "ĠAM": 6567,
      "using": 6568,
      "Ġstore": 6569,
      "productos": 6570,
      "Ġspecif": 6571,
      "Kolhapur": 6572,
      "dif": 6573,
      "sq": 6574,
      "ROW": 6575,
      "TEN": 6576,
      "olu": 6577,
      "ĠGold": 6578,
      "Ġking": 6579,
      "verse": 6580,
      "æµģ": 6581,
      "itect": 6582,
      "Ġful": 6583,
      "adi": 6584,
      "Ġstarted": 6585,
      "ÐµÐ½Ð¸Ñı": 6586,
      "Female": 6587,
      "Fr": 6588,
      "Ġ'{\\\"": 6589,
      "Ġchannel": 6590,
      "á»ĥ": 6591,
      "Ġplayers": 6592,
      "format": 6593,
      "äºĳ": 6594,
      "Ġenglish": 6595,
      "æłĩ": 6596,
      "dr": 6597,
      "match": 6598,
      "ĠLa": 6599,
      "enses": 6600,
      "AVAIL": 6601,
      "Ġexplain": 6602,
      "ÐµÐ»ÑĮ": 6603,
      "ç±»": 6604,
      "ospital": 6605,
      "Employee": 6606,
      "yt": 6607,
      "Ġtheory": 6608,
      "Ġconcent": 6609,
      "angan": 6610,
      "Ð¸Ð¼": 6611,
      "build": 6612,
      "Ġmethods": 6613,
      "Can": 6614,
      "RL": 6615,
      "kk": 6616,
      "qr": 6617,
      "Ġwriting": 6618,
      "Ġindividuals": 6619,
      "IH": 6620,
      "Sw": 6621,
      "west": 6622,
      "ĠNT": 6623,
      "Ġnight": 6624,
      "oma": 6625,
      "Ġmach": 6626,
      "Ġsuff": 6627,
      "DECLARE": 6628,
      "ĠApple": 6629,
      "Created": 6630,
      "float": 6631,
      "Ġdemonstr": 6632,
      "hZ": 6633,
      "Ñį": 6634,
      "Ġguid": 6635,
      "amm": 6636,
      "åŃĲ": 6637,
      "ç½®": 6638,
      "Ġstep": 6639,
      "ori": 6640,
      "orial": 6641,
      "ĠWashington": 6642,
      "Ġsometimes": 6643,
      "Ġelectric": 6644,
      "Ġmoving": 6645,
      "mw": 6646,
      "æ¨": 6647,
      "Ġcopy": 6648,
      "ĠOff": 6649,
      "ĠMore": 6650,
      "ĠPER": 6651,
      "ĠDay": 6652,
      "irit": 6653,
      "vert": 6654,
      "ĠLorem": 6655,
      "Ġfeet": 6656,
      "transferase": 6657,
      "Ġwrote": 6658,
      "Wx": 6659,
      "Ġsecurity": 6660,
      "ä½į": 6661,
      "Ġcaused": 6662,
      "Ð½ÑĭÑħ": 6663,
      "/',": 6664,
      "FJ": 6665,
      "NQ": 6666,
      "Nivel": 6667,
      "hired": 6668,
      "èĲ": 6669,
      "ampion": 6670,
      "activity": 6671,
      "Ġperfect": 6672,
      "ression": 6673,
      "Ġoutside": 6674,
      "Ġsafe": 6675,
      "Ġassess": 6676,
      "ç»Ħ": 6677,
      "Certificado": 6678,
      "ril": 6679,
      "inn": 6680,
      "outhern": 6681,
      "Ġemb": 6682,
      "genase": 6683,
      "ducing": 6684,
      "office": 6685,
      "Ġsignal": 6686,
      "equ": 6687,
      "friend": 6688,
      "isodes": 6689,
      "ĠWeek": 6690,
      "Ġfarm": 6691,
      "Ġnickname": 6692,
      "ikan": 6693,
      "Ġreports": 6694,
      "åīį": 6695,
      "olog": 6696,
      "abet": 6697,
      "estado": 6698,
      "intro": 6699,
      "ĠResult": 6700,
      "Ġfront": 6701,
      "Mr": 6702,
      "atives": 6703,
      "idad": 6704,
      "Ġorigin": 6705,
      "Ġoffice": 6706,
      "codebridge": 6707,
      "brand": 6708,
      "Ġcarbon": 6709,
      "Ġtests": 6710,
      "Ġbring": 6711,
      "Ġinside": 6712,
      "vacation": 6713,
      "Vz": 6714,
      "hood": 6715,
      "rating": 6716,
      "meb": 6717,
      "Ġsequence": 6718,
      "construct": 6719,
      "ADDRESS": 6720,
      "amento": 6721,
      "Ġmanufacturer": 6722,
      "JDVD": 6723,
      "Ġbiosynthesis": 6724,
      "âĪ": 6725,
      "Ġcitiz": 6726,
      "aste": 6727,
      "Ġinv": 6728,
      "Ġcontains": 6729,
      "ç«ł": 6730,
      "Became": 6731,
      "UC": 6732,
      "ĠWork": 6733,
      "iter": 6734,
      "ador": 6735,
      "ĠSur": 6736,
      "Ð¸Ð²": 6737,
      "polaB": 6738,
      "koj": 6739,
      "Ġä¿®æĶ¹": 6740,
      "Ġsrc": 6741,
      "amework": 6742,
      "ĠJose": 6743,
      "ĠLoc": 6744,
      "COL": 6745,
      "phosph": 6746,
      "Chand": 6747,
      "Ġscientific": 6748,
      "æ°´": 6749,
      "Huyá»ĩn": 6750,
      ".'": 6751,
      "TK": 6752,
      "Yg": 6753,
      "crit": 6754,
      "dG": 6755,
      "ĠÑģÑĤ": 6756,
      "Ġsn": 6757,
      "Ð¸Ð½": 6758,
      "Ð¾Ð»ÑĮ": 6759,
      "Ġmemory": 6760,
      "Ġessential": 6761,
      "ĠPROCEDURE": 6762,
      "Dep": 6763,
      "PAT": 6764,
      "bn": 6765,
      "candid": 6766,
      "hris": 6767,
      "åĢ": 6768,
      "production": 6769,
      "PAID": 6770,
      "Endpoints": 6771,
      "Ġreleased": 6772,
      "eal": 6773,
      "uo": 6774,
      "writ": 6775,
      "Ġload": 6776,
      "ÑĢÑĥ": 6777,
      "\\\"],\\\"": 6778,
      "normal": 6779,
      "DS": 6780,
      "GAL": 6781,
      "uge": 6782,
      "Ġoval": 6783,
      "ĠHer": 6784,
      "Ġweeks": 6785,
      "Ġminimum": 6786,
      "VO": 6787,
      "}.": 6788,
      "Ġult": 6789,
      "ĠPitcher": 6790,
      "ĠIndia": 6791,
      "ermany": 6792,
      "wk": 6793,
      "ĠCons": 6794,
      "Ġconsequ": 6795,
      "ä¿¡æģ¯": 6796,
      "hydrogenase": 6797,
      "dy": 6798,
      "ĠACTION": 6799,
      "tee": 6800,
      "Ġmas": 6801,
      "cean": 6802,
      "Requ": 6803,
      "Ġfactors": 6804,
      "ĠClass": 6805,
      "usuario": 6806,
      "PC": 6807,
      "gm": 6808,
      "uj": 6809,
      "Ġgl": 6810,
      "omas": 6811,
      "velopment": 6812,
      "Ġfastest": 6813,
      "Ġcensus": 6814,
      "isms": 6815,
      "Ġdates": 6816,
      "CORE": 6817,
      "concept": 6818,
      "nings": 6819,
      "attachment": 6820,
      "Ġadditional": 6821,
      "Ġentry": 6822,
      "Ġgenerally": 6823,
      ")\\\",\\\"": 6824,
      "bk": 6825,
      "sick": 6826,
      "Ġnomin": 6827,
      "ĠBlack": 6828,
      "ĠRuss": 6829,
      "Ġque": 6830,
      "æĶ¯": 6831,
      "AVAILABLE": 6832,
      "hit": 6833,
      "Ġwind": 6834,
      "server": 6835,
      "????": 6836,
      "dj": 6837,
      "xi": 6838,
      "station": 6839,
      "Ġlove": 6840,
      "mercial": 6841,
      "Ð¸Ð¹": 6842,
      "plug": 6843,
      "junior": 6844,
      "SCHEMA": 6845,
      "Group": 6846,
      "PIN": 6847,
      "VT": 6848,
      "aid": 6849,
      "haps": 6850,
      "wer": 6851,
      "inary": 6852,
      "ĠVersion": 6853,
      "Ġfight": 6854,
      "ANCO": 6855,
      "akan": 6856,
      "Ġplate": 6857,
      "çķ": 6858,
      "Ġ,'": 6859,
      "ĠÐ¾ÑĤ": 6860,
      "Ġowner": 6861,
      "lore": 6862,
      "ĠKh": 6863,
      "ief": 6864,
      "licable": 6865,
      "Ġincluded": 6866,
      "???": 6867,
      "ĠSocial": 6868,
      "Ġemployees": 6869,
      "IBLE": 6870,
      "QI": 6871,
      "just": 6872,
      "mount": 6873,
      "vf": 6874,
      "vict": 6875,
      "Ġhyp": 6876,
      "ĠBer": 6877,
      "ĠPort": 6878,
      "Ġminutes": 6879,
      "ãģĦ": 6880,
      "EndPointID": 6881,
      "è¦ģ": 6882,
      "MU": 6883,
      "Py": 6884,
      "cart": 6885,
      "atar": 6886,
      "ĠCHE": 6887,
      "Ġdari": 6888,
      "ĠSee": 6889,
      "æĿĥ": 6890,
      "ĠDependent": 6891,
      "known": 6892,
      "receip": 6893,
      "BS": 6894,
      "PI": 6895,
      "Part": 6896,
      "Ð¡": 6897,
      "ancial": 6898,
      "Ġpassword": 6899,
      "abs": 6900,
      "ĠChristian": 6901,
      "ALL": 6902,
      "perun": 6903,
      "Ġcompared": 6904,
      "aily": 6905,
      "games": 6906,
      "xic": 6907,
      "Äģ": 6908,
      "ĠÐ¾Ð±": 6909,
      "ypeID": 6910,
      "Ġadded": 6911,
      "Ġpoly": 6912,
      "levision": 6913,
      "DIST": 6914,
      "body": 6915,
      "ĠCong": 6916,
      "Ġmil": 6917,
      "udt": 6918,
      "BI": 6919,
      "Ġsustain": 6920,
      "Ġmilitary": 6921,
      "Ġlim": 6922,
      "Ġvariety": 6923,
      "Ġcontinue": 6924,
      "unicipality": 6925,
      "instance": 6926,
      "Ġcoup": 6927,
      "isation": 6928,
      "issue": 6929,
      "Ġphone": 6930,
      "ginia": 6931,
      "å°Ķ": 6932,
      "BAN": 6933,
      "Of": 6934,
      "Rp": 6935,
      "orary": 6936,
      "spond": 6937,
      "county": 6938,
      "iento": 6939,
      "å¤´": 6940,
      "Ġactor": 6941,
      "matches": 6942,
      "éĻĲ": 6943,
      "Ġauto": 6944,
      "Dh": 6945,
      "History": 6946,
      "PV": 6947,
      "nF": 6948,
      "sms": 6949,
      "Ġcri": 6950,
      "Ġhy": 6951,
      "urity": 6952,
      "Ġdeep": 6953,
      "Ġapplications": 6954,
      "actor": 6955,
      "Ġlives": 6956,
      "airs": 6957,
      "æŀĹ": 6958,
      "bigint": 6959,
      "lg": 6960,
      "publish": 6961,
      "osing": 6962,
      "Ġworkers": 6963,
      "Ġconsist": 6964,
      "requency": 6965,
      "xxxx": 6966,
      "IOTypeID": 6967,
      "One": 6968,
      "istry": 6969,
      "ãģŁ": 6970,
      "ERSION": 6971,
      "ptember": 6972,
      "Ġdb": 6973,
      "ĠDNA": 6974,
      "Ġprogress": 6975,
      "connect": 6976,
      "ãģ«": 6977,
      "CONC": 6978,
      "poster": 6979,
      "$_": 6980,
      "aur": 6981,
      "ils": 6982,
      "Ġspread": 6983,
      "pril": 6984,
      "fields": 6985,
      "HTML": 6986,
      "HL": 6987,
      "ĠPCT": 6988,
      "rian": 6989,
      "Ġtrade": 6990,
      "Ġskills": 6991,
      "Entity": 6992,
      "got": 6993,
      "Ġenum": 6994,
      "æĸĩç«ł": 6995,
      "Ġswim": 6996,
      "Ġanimal": 6997,
      "xiaolu": 6998,
      "QQ": 6999,
      "èĥ½": 7000,
      "Ġpsy": 7001,
      "Ġthous": 7002,
      "STR": 7003,
      "âĢ¦": 7004,
      "Ġmeet": 7005,
      "Ġadminist": 7006,
      "Ġargu": 7007,
      "ĠProv": 7008,
      "ãĤĴ": 7009,
      "çī©": 7010,
      "CU": 7011,
      "OK": 7012,
      "Ġamin": 7013,
      "iti": 7014,
      "ĠNVARCHAR": 7015,
      "á»Ľ": 7016,
      "ception": 7017,
      "Ed": 7018,
      "GT": 7019,
      "PROP": 7020,
      "cat": 7021,
      "case": 7022,
      "ĠSÆ¡n": 7023,
      "opt": 7024,
      "Ġnews": 7025,
      "UTIL": 7026,
      "ä½¿": 7027,
      "HS": 7028,
      "gire": 7029,
      "åĿ": 7030,
      "Ġunit": 7031,
      "inson": 7032,
      "adding": 7033,
      "grad": 7034,
      "polaD": 7035,
      "polaF": 7036,
      "èģĶ": 7037,
      "DL": 7038,
      "Language": 7039,
      "cid": 7040,
      "oon": 7041,
      "vm": 7042,
      "ĠÃ": 7043,
      "ĠFranc": 7044,
      "ĠCap": 7045,
      "Ġbot": 7046,
      "ĠEast": 7047,
      "Ġproperty": 7048,
      "ociation": 7049,
      "Ġparticularly": 7050,
      "power": 7051,
      "wide": 7052,
      "Ġeu": 7053,
      "chunk": 7054,
      "Ġproper": 7055,
      "aha": 7056,
      "idden": 7057,
      "DISTRICT": 7058,
      "HI": 7059,
      "HV": 7060,
      "Mgr": 7061,
      "ĠPAR": 7062,
      "State": 7063,
      "TYPES": 7064,
      "Ġprivate": 7065,
      "identifier": 7066,
      "æĺ¯åĲ¦": 7067,
      "Ġbelieve": 7068,
      "Ġbehavior": 7069,
      "ĠCHECK": 7070,
      "El": 7071,
      "aco": 7072,
      "census": 7073,
      "iency": 7074,
      "mas": 7075,
      "ĠCD": 7076,
      "Ġfederal": 7077,
      "names": 7078,
      "ĠWhile": 7079,
      "geom": 7080,
      "áĢ¸": 7081,
      "Min": 7082,
      "igger": 7083,
      "omain": 7084,
      "Ġfewer": 7085,
      "Card": 7086,
      "Ġfoot": 7087,
      "mpt": 7088,
      "Ġstat": 7089,
      "ĠKe": 7090,
      "Ġserious": 7091,
      "Ġprojects": 7092,
      "è¾¾": 7093,
      "Ġathlete": 7094,
      "Ú©": 7095,
      "Ġhydro": 7096,
      "uries": 7097,
      "Ġprocedure": 7098,
      "Ġairport": 7099,
      "åįĹçľģ": 7100,
      "Ġculture": 7101,
      "æ¨¡": 7102,
      "EFFE": 7103,
      "RR": 7104,
      "rier": 7105,
      "odium": 7106,
      "Ġ>=": 7107,
      "coming": 7108,
      "ĠALPHA": 7109,
      "Ġhometown": 7110,
      "mote": 7111,
      "Ġstatement": 7112,
      "MANA": 7113,
      "Ġlimited": 7114,
      "girey": 7115,
      "AIN": 7116,
      "Hy": 7117,
      "map": 7118,
      "Ġ?": 7119,
      "INTE": 7120,
      "ito": 7121,
      "Ġpaint": 7122,
      "undred": 7123,
      "Ġdiet": 7124,
      "åºĶ": 7125,
      "Lj": 7126,
      "SUM": 7127,
      "tead": 7128,
      "Ġsegment": 7129,
      "ç»ĵ": 7130,
      "Ap": 7131,
      "bur": 7132,
      "language": 7133,
      "Ġslow": 7134,
      "CTIVE": 7135,
      "acao": 7136,
      "ÐµÑģ": 7137,
      "izations": 7138,
      "ãģ§": 7139,
      "polaE": 7140,
      "Ġbehind": 7141,
      "ĠEuropean": 7142,
      "ximately": 7143,
      "!',": 7144,
      "]}',": 7145,
      "wise": 7146,
      "Ø¹": 7147,
      "atter": 7148,
      "tell": 7149,
      "ÐµÐ³": 7150,
      "ĠCanada": 7151,
      "Ġidentify": 7152,
      "xml": 7153,
      "Ġast": 7154,
      "loot": 7155,
      "Ġdevice": 7156,
      "artin": 7157,
      "Ð°Ñħ": 7158,
      "Ġcompanies": 7159,
      "onesia": 7160,
      "Sant": 7161,
      "hips": 7162,
      "èĬ": 7163,
      "Ġtask": 7164,
      "ening": 7165,
      "Ġthing": 7166,
      "ĠĠĠĠĠĠĠĠĠĠĠĠĠĠĠĠĠĠĠĠĠĠĠĠ": 7167,
      "Ġentity": 7168,
      "Ġcapt": 7169,
      "operation": 7170,
      "crmeb": 7171,
      "CLASSIFICATION": 7172,
      "èıľåįķ": 7173,
      "John": 7174,
      "lf": 7175,
      "try": 7176,
      "ĠMany": 7177,
      "ĠRed": 7178,
      "äº¿": 7179,
      "äºĭ": 7180,
      "Ġphil": 7181,
      "polaA": 7182,
      "Ġpoor": 7183,
      "Ġincreasing": 7184,
      "å°ı": 7185,
      "OUND": 7186,
      "Value": 7187,
      "AZ": 7188,
      "PG": 7189,
      "ç¬": 7190,
      "ĠQU": 7191,
      "SENT": 7192,
      "icago": 7193,
      "olid": 7194,
      "Ġdehydrogenase": 7195,
      "ONG": 7196,
      "Ġquery": 7197,
      "ĠRETUR": 7198,
      "dddd": 7199,
      "polaC": 7200,
      "FILE": 7201,
      "é»ĳ": 7202,
      "ANCOU": 7203,
      "Fs": 7204,
      "NI": 7205,
      "course": 7206,
      "har": 7207,
      "iacute": 7208,
      "Ġtakes": 7209,
      "leep": 7210,
      "umlah": 7211,
      "Ġvotes": 7212,
      "Ġpropos": 7213,
      "pha": 7214,
      "ACTION": 7215,
      "Ġclassroom": 7216,
      "Ġauthority": 7217,
      "Do": 7218,
      "Dist": 7219,
      "OPER": 7220,
      "eth": 7221,
      "tur": 7222,
      "íķ": 7223,
      "atu": 7224,
      "ĠFire": 7225,
      "ĠPaul": 7226,
      "Ø§ÙĦ": 7227,
      "ondon": 7228,
      "Ð°Ð´": 7229,
      "Ġorganization": 7230,
      "ĠAfrica": 7231,
      "Ġcursor": 7232,
      "Job": 7233,
      "WQ": 7234,
      "nS": 7235,
      "eration": 7236,
      "ĠWater": 7237,
      "Ġbi": 7238,
      "ĠSYN": 7239,
      "Loc": 7240,
      "commit": 7241,
      "UNIT": 7242,
      "Ġcauses": 7243,
      "Ġleaders": 7244,
      "perties": 7245,
      ")>=": 7246,
      "isions": 7247,
      "asa": 7248,
      "CESS": 7249,
      "Ġcommunities": 7250,
      "Ġcontinued": 7251,
      "cities": 7252,
      "tw": 7253,
      "Ġbab": 7254,
      ",'','','": 7255,
      "question": 7256,
      "ĠRich": 7257,
      "Ġassists": 7258,
      "illage": 7259,
      "Ġautom": 7260,
      "Ġradio": 7261,
      "CY": 7262,
      "æĦ": 7263,
      "ç¢": 7264,
      "Ġhabit": 7265,
      "tein": 7266,
      "otton": 7267,
      "Ġcomponent": 7268,
      "Ġpositive": 7269,
      "Ġdescribed": 7270,
      ";\">": 7271,
      "ju": 7272,
      "zing": 7273,
      "ena": 7274,
      "ABASE": 7275,
      "ĠIII": 7276,
      "ĠJes": 7277,
      "Ġdecl": 7278,
      "Ð¸Ñħ": 7279,
      "fert": 7280,
      "LOV": 7281,
      "Ġrecords": 7282,
      "ylke": 7283,
      "ãĢĤ',": 7284,
      "Fl": 7285,
      "From": 7286,
      "MAR": 7287,
      "Sang": 7288,
      "ticket": 7289,
      "ulo": 7290,
      "Ðļ": 7291,
      "TEM": 7292,
      "ATABASE": 7293,
      "ĠGroup": 7294,
      "ĠGovern": 7295,
      "Ji": 7296,
      "craft": 7297,
      "wy": 7298,
      "éĴ": 7299,
      "enced": 7300,
      "Ġappropri": 7301,
      "Ġago": 7302,
      "Ġtherefore": 7303,
      "Ġgenetic": 7304,
      "Ġfamilies": 7305,
      "Ġfavor": 7306,
      "vy": 7307,
      "inical": 7308,
      "INK": 7309,
      "dem": 7310,
      "ONYM": 7311,
      "Ġmessage": 7312,
      "Ġroll": 7313,
      "Ġlegal": 7314,
      "Ġdetermine": 7315,
      "Ġmiles": 7316,
      "ĠSoci": 7317,
      "Ġprop": 7318,
      "apore": 7319,
      "rolet": 7320,
      "Ġdrink": 7321,
      "ĠEducation": 7322,
      "Mj": 7323,
      "pu": 7324,
      "REASON": 7325,
      "ĠCREATED": 7326,
      "ĠPresident": 7327,
      "Ġdeal": 7328,
      "Ġdecre": 7329,
      "Ġlines": 7330,
      "apter": 7331,
      "Æ°á»Ľ": 7332,
      "ãĤĮ": 7333,
      "Order": 7334,
      "Ã¼r": 7335,
      "\"><": 7336,
      "gz": 7337,
      "Ġthus": 7338,
      "ĠSw": 7339,
      "Ġcoast": 7340,
      "çīĪ": 7341,
      "åĪĽå»ºæĹ¶éĹ´": 7342,
      "([": 7343,
      "HQ": 7344,
      "Set": 7345,
      "dl": 7346,
      "mosph": 7347,
      "çŁ": 7348,
      "ĠAb": 7349,
      "ultural": 7350,
      "Ġsport": 7351,
      "oyota": 7352,
      "Ġdoesn": 7353,
      "Ġcourt": 7354,
      "PX": 7355,
      "blog": 7356,
      "xC": 7357,
      "ÐĲ": 7358,
      "Ġpresident": 7359,
      "uster": 7360,
      "Ġreach": 7361,
      "Ġreference": 7362,
      "Ġvoc": 7363,
      "ĠMost": 7364,
      "allery": 7365,
      "subject": 7366,
      "éĿ¢": 7367,
      "Ġvote": 7368,
      "Ġbelong": 7369,
      "hens": 7370,
      "nology": 7371,
      "ãģ¦": 7372,
      "å¸¸": 7373,
      "ypes": 7374,
      "Ġdamage": 7375,
      "yahoo": 7376,
      "DISTINCT": 7377,
      "Role": 7378,
      "UA": 7379,
      "iP": 7380,
      "pet": 7381,
      "vrolet": 7382,
      "namespace": 7383,
      "cell": 7384,
      "rael": 7385,
      "Ġrat": 7386,
      "show": 7387,
      "ãģ¯": 7388,
      "Ġimmedi": 7389,
      "pV": 7390,
      "éģ": 7391,
      "Ġdet": 7392,
      "Ġdraft": 7393,
      "Ġsec": 7394,
      "à¸£": 7395,
      "Ġplaced": 7396,
      "ĠSYNONYM": 7397,
      "Cent": 7398,
      "FER": 7399,
      "IDENT": 7400,
      "Mu": 7401,
      "dist": 7402,
      "çĸ": 7403,
      "olina": 7404,
      "ĠOWNED": 7405,
      "æºĲ": 7406,
      "Ġfocus": 7407,
      "Sm": 7408,
      "bul": 7409,
      "iq": 7410,
      "iro": 7411,
      "master": 7412,
      "Ġ','": 7413,
      "Ġmid": 7414,
      "uls": 7415,
      "movie": 7416,
      "HJ": 7417,
      "TP": 7418,
      "ceed": 7419,
      "Ġinterpre": 7420,
      "curso": 7421,
      "Ġgrowing": 7422,
      "ev": 7423,
      "hu": 7424,
      "}}": 7425,
      "éĵ": 7426,
      "Ġmission": 7427,
      "Ġconference": 7428,
      "iller": 7429,
      "Log": 7430,
      "Ġlack": 7431,
      "à¸Ļ": 7432,
      "Prof": 7433,
      "gypt": 7434,
      "REGION": 7435,
      "Color": 7436,
      "iber": 7437,
      "rn": 7438,
      "lebr": 7439,
      "ĠFrom": 7440,
      "Ġevalu": 7441,
      "Ġattention": 7442,
      "Ġreplaced": 7443,
      "Account": 7444,
      "CoI": 7445,
      "Ġextreme": 7446,
      "Ġinstead": 7447,
      "diction": 7448,
      "ZG": 7449,
      "jb": 7450,
      "jpeg": 7451,
      "ÐŁ": 7452,
      "OTI": 7453,
      "irection": 7454,
      "ruit": 7455,
      "ĠChurch": 7456,
      "BL": 7457,
      "Ol": 7458,
      "bid": 7459,
      "',-": 7460,
      "aria": 7461,
      "ald": 7462,
      "entry": 7463,
      "ITIVE": 7464,
      "Ġsem": 7465,
      "åºı": 7466,
      "ĠRepublic": 7467,
      "Av": 7468,
      "joy": 7469,
      "Ġsal": 7470,
      "Ġmig": 7471,
      "ĠSilver": 7472,
      "ĠMor": 7473,
      "ĠRoman": 7474,
      "ĠLong": 7475,
      "fox": 7476,
      "URRENCY": 7477,
      "Ġtransport": 7478,
      "ENC": 7479,
      "iV": 7480,
      "SENS": 7481,
      "Ġfat": 7482,
      "uts": 7483,
      "dev": 7484,
      "ĠDA": 7485,
      "Ð°ÑģÑĤ": 7486,
      "Ġdoing": 7487,
      "NOTES": 7488,
      "ĠÐ²Ñĭ": 7489,
      "Ãłnh": 7490,
      "æıĲ": 7491,
      "Ġcommunication": 7492,
      "department": 7493,
      "resets": 7494,
      "Ġsurg": 7495,
      "drawn": 7496,
      "ĠNAMES": 7497,
      "#__": 7498,
      "tv": 7499,
      "INNER": 7500,
      "ĠNam": 7501,
      "alen": 7502,
      "ĠSTATE": 7503,
      "Ġbrand": 7504,
      "çº¿": 7505,
      "Ġbeginning": 7506,
      "Xu": 7507,
      "ZV": 7508,
      "bas": 7509,
      "money": 7510,
      "ç¡": 7511,
      "Ġideas": 7512,
      "sex": 7513,
      "imens": 7514,
      "ITUDE": 7515,
      "Ġprep": 7516,
      "Update": 7517,
      "èĢħ": 7518,
      "WHEN": 7519,
      "hand": 7520,
      "wx": 7521,
      "origin": 7522,
      "igen": 7523,
      "liv": 7524,
      "peat": 7525,
      "FACT": 7526,
      "prod": 7527,
      "ships": 7528,
      "åĪĹ": 7529,
      "ĠProject": 7530,
      "Ġtransl": 7531,
      "Ġearlier": 7532,
      "Ġsites": 7533,
      "overall": 7534,
      "Ġnearly": 7535,
      "BQ": 7536,
      "wiz": 7537,
      "Ġbacter": 7538,
      "Ġelimin": 7539,
      "Ġformer": 7540,
      "ags": 7541,
      "amine": 7542,
      "ĠLu": 7543,
      "forms": 7544,
      "GRCh": 7545,
      "Ġcorrect": 7546,
      "CONTROL": 7547,
      "Ng": 7548,
      "ological": 7549,
      "ĠArea": 7550,
      "uted": 7551,
      "ITIAL": 7552,
      "ffix": 7553,
      "Ġrow": 7554,
      "Prov": 7555,
      "Ġtravel": 7556,
      "Ġruns": 7557,
      "áº¥t": 7558,
      "Ġrelationship": 7559,
      "Pass": 7560,
      "hyd": 7561,
      "wap": 7562,
      "infor": 7563,
      "onor": 7564,
      "Ġmiddle": 7565,
      "Ġrespect": 7566,
      "odies": 7567,
      "imer": 7568,
      "Ġhel": 7569,
      "Ġresponse": 7570,
      "EFFECTIVE": 7571,
      "Gl": 7572,
      "Jt": 7573,
      "oa": 7574,
      "rich": 7575,
      "ĠCE": 7576,
      "HED": 7577,
      "ĠSpe": 7578,
      "Ð°Ñı": 7579,
      "ika": 7580,
      "Ġagree": 7581,
      "Ġseems": 7582,
      "Ð½ÑĭÐ¹": 7583,
      "capacity": 7584,
      "ParamType": 7585,
      "MgrType": 7586,
      "RP": 7587,
      "TRA": 7588,
      "covery": 7589,
      "Ġeth": 7590,
      "OTHER": 7591,
      "ORDER": 7592,
      "sume": 7593,
      "hotel": 7594,
      "Ġsolar": 7595,
      "relation": 7596,
      "Ġteachers": 7597,
      "Es": 7598,
      "ZQ": 7599,
      "dou": 7600,
      "èĤ": 7601,
      "Ġinstr": 7602,
      "Ġ`#__": 7603,
      "Ġvi": 7604,
      "ĠItal": 7605,
      "ĠEL": 7606,
      "Ġalthough": 7607,
      "ãģķ": 7608,
      "Ġreflect": 7609,
      "Br": 7610,
      "Nz": 7611,
      "TV": 7612,
      "fv": 7613,
      "mj": 7614,
      "å¢ŀ": 7615,
      "ĠWHEN": 7616,
      "united": 7617,
      "omb": 7618,
      "ĠHuman": 7619,
      "ãģĵ": 7620,
      "ĠObject": 7621,
      "Ġhumans": 7622,
      "VISIBLE": 7623,
      "IQ": 7624,
      "nil": 7625,
      "ĠAv": 7626,
      "ĠMG": 7627,
      "Ġstop": 7628,
      "under": 7629,
      "Ġquite": 7630,
      "Ġpeak": 7631,
      "ãģĻãĤĭ": 7632,
      "iá»ĩn": 7633,
      "á»Ľi": 7634,
      "Public": 7635,
      "æ¯": 7636,
      "release": 7637,
      "chase": 7638,
      "ĠMel": 7639,
      "ĠLO": 7640,
      "ecurity": 7641,
      "Ġacqu": 7642,
      "Ġdirectly": 7643,
      "Ġwrite": 7644,
      "xz": 7645,
      "Ġsort": 7646,
      "anish": 7647,
      "ĠVer": 7648,
      "ĠCAR": 7649,
      "Ġeco": 7650,
      "ĠId": 7651,
      "owner": 7652,
      "Ġexact": 7653,
      "phy": 7654,
      "Ġarray": 7655,
      "products": 7656,
      "CoIo": 7657,
      "Ġdengan": 7658,
      "olicy": 7659,
      "revision": 7660,
      "BOUND": 7661,
      "UND": 7662,
      "fZ": 7663,
      "ĠÙĪ": 7664,
      "Ġpil": 7665,
      "serif": 7666,
      "rule": 7667,
      "Ġraces": 7668,
      "ĠMedic": 7669,
      "Ġsociety": 7670,
      "(+)": 7671,
      ":#": 7672,
      "Bl": 7673,
      "HH": 7674,
      "Jr": 7675,
      "Mrs": 7676,
      "RX": 7677,
      "WU": 7678,
      "gw": 7679,
      "navn": 7680,
      "ĠRober": 7681,
      "Ġcreation": 7682,
      "regn": 7683,
      "Ġdesc": 7684,
      "ĠEngine": 7685,
      "çŃ¾": 7686,
      "Hel": 7687,
      "MV": 7688,
      "SV": 7689,
      "may": 7690,
      "tree": 7691,
      "itan": 7692,
      "lokallag": 7693,
      "ulf": 7694,
      "ĠJews": 7695,
      "ĠJournal": 7696,
      "Ġdead": 7697,
      "á»¯": 7698,
      "Ġrecently": 7699,
      "Ġlatest": 7700,
      "Ġexposure": 7701,
      "SENSITIVE": 7702,
      "Fz": 7703,
      "kr": 7704,
      "million": 7705,
      "Ġclient": 7706,
      "istant": 7707,
      "Ġmelbourne": 7708,
      "spons": 7709,
      "åĲİ": 7710,
      "preview": 7711,
      "cdn": 7712,
      "nama": 7713,
      "Ġsans": 7714,
      "Ġscreen": 7715,
      "Ġmal": 7716,
      "raz": 7717,
      "episode": 7718,
      "GEN": 7719,
      "æĪĲéĥ½": 7720,
      "Ġobjects": 7721,
      "GQ": 7722,
      "Wl": 7723,
      "vw": 7724,
      "è°": 7725,
      "Ġ~": 7726,
      "Ġtree": 7727,
      "aset": 7728,
      "Ġdepart": 7729,
      "ĠHost": 7730,
      "Ġunited": 7731,
      "è¯ģ": 7732,
      "\\\"},\\\"": 7733,
      "Ġ'{\\": 7734,
      "ĠPhilipp": 7735,
      "ä½¿çĶ¨": 7736,
      "Nissan": 7737,
      "but": 7738,
      "cz": 7739,
      "pn": 7740,
      "session": 7741,
      "Ġedit": 7742,
      "SEN": 7743,
      "pective": 7744,
      "Ġgene": 7745,
      "suit": 7746,
      "Ã¶r": 7747,
      "Service": 7748,
      "Index": 7749,
      "MANAGER": 7750,
      ";</": 7751,
      "KHTML": 7752,
      "pic": 7753,
      "ĠLaw": 7754,
      "ĠÐĴ": 7755,
      "ugar": 7756,
      "ibfk": 7757,
      "transaction": 7758,
      "Ġoccup": 7759,
      "Ġlooking": 7760,
      "OWNED": 7761,
      "WebKit": 7762,
      "ĠAppleWebKit": 7763,
      "Js": 7764,
      "ging": 7765,
      "tor": 7766,
      "Ġincome": 7767,
      "Ġvideo": 7768,
      "\\\":\\\"\\\",\\\"": 7769,
      "Ġkm": 7770,
      "åľº": 7771,
      "è®¤": 7772,
      "events": 7773,
      "fn": 7774,
      "fylke": 7775,
      "well": 7776,
      "Ġbillion": 7777,
      "ĠUp": 7778,
      "Ġenrollment": 7779,
      "Ġcompleted": 7780,
      "Ġcommand": 7781,
      "suffix": 7782,
      "Ġconstruction": 7783,
      "ZERO": 7784,
      "ãģĦãģ": 7785,
      "CONCURRENCY": 7786,
      "DR": 7787,
      "Jj": 7788,
      "ems": 7789,
      "Ġdaily": 7790,
      "ads": 7791,
      "ĠSy": 7792,
      "ĠGreen": 7793,
      "ĠÐ»": 7794,
      "Ġgenes": 7795,
      "voices": 7796,
      "Ġcomb": 7797,
      "Ã²a": 7798,
      "Di": 7799,
      "tra": 7800,
      "Ġtend": 7801,
      "Ġsen": 7802,
      "Ġbad": 7803,
      "sto": 7804,
      "Ġein": 7805,
      "Ġrema": 7806,
      "umin": 7807,
      "sect": 7808,
      "iface": 7809,
      "Ġius": 7810,
      "Ġinterview": 7811,
      "ĠUnion": 7812,
      "suor": 7813,
      "Ġeasy": 7814,
      "Ġsyntax": 7815,
      "AW": 7816,
      "DK": 7817,
      "YE": 7818,
      "LEGAL": 7819,
      "itles": 7820,
      "anga": 7821,
      "ĠChinese": 7822,
      "UNK": 7823,
      "BASE": 7824,
      "NCIES": 7825,
      "Ġstreet": 7826,
      "TENTIAL": 7827,
      "MGMT": 7828,
      "fficient": 7829,
      "Ġconcern": 7830,
      "Ġprecision": 7831,
      "Air": 7832,
      "uv": 7833,
      "method": 7834,
      "Ġsmal": 7835,
      "Ġhundred": 7836,
      "mph": 7837,
      "unte": 7838,
      "olar": 7839,
      "olution": 7840,
      "Ġcontr": 7841,
      "UMBR": 7842,
      "ourt": 7843,
      "mination": 7844,
      "udget": 7845,
      "æľª": 7846,
      "cape": 7847,
      "built": 7848,
      "POTENTIAL": 7849,
      "PAIMS": 7850,
      "AGENCIES": 7851,
      "FFFFFFFF": 7852,
      "Ġhousehold": 7853,
      "COREOPER": 7854,
      "INTEREST": 7855,
      "ENCUMBR": 7856,
      "BOUNDARY": 7857,
      "ENCUMBRANCE": 7858,
      "Ass": 7859,
      "OP": 7860,
      "Zn": 7861,
      "gp": 7862,
      "nxt": 7863,
      "Ġaware": 7864,
      "oring": 7865,
      "Ġeye": 7866,
      "ĠOver": 7867,
      "ĠMary": 7868,
      "amous": 7869,
      "Ġresource": 7870,
      "ASA": 7871,
      "poly": 7872,
      "Ġcollection": 7873,
      "Ġmultiple": 7874,
      "MOTI": 7875,
      "URA": 7876,
      "ĠÑį": 7877,
      "ĠSen": 7878,
      "anges": 7879,
      "ANGU": 7880,
      "ointment": 7881,
      "æľį": 7882,
      "Ġobtain": 7883,
      "istered": 7884,
      "ĠTrans": 7885,
      "Ġtraditional": 7886,
      "æĤ¨çļĦ": 7887,
      "MOTIADMIN": 7888,
      "Ġriver": 7889,
      "Ġatom": 7890,
      "finance": 7891,
      "feet": 7892,
      "è¯ķ": 7893,
      "Ġsupply": 7894,
      "Ġbrought": 7895,
      "document": 7896,
      "Ġencou": 7897,
      "á»ĵng": 7898,
      "éĩįåºĨ": 7899,
      "Aw": 7900,
      "Jz": 7901,
      "oI": 7902,
      "Ġdra": 7903,
      "stock": 7904,
      "ĠMer": 7905,
      "ĠDatabase": 7906,
      "ĠJames": 7907,
      "exit": 7908,
      "$$": 7909,
      "Hj": 7910,
      "pite": 7911,
      "xl": 7912,
      "Ġtheme": 7913,
      "\":[": 7914,
      "ĠHistory": 7915,
      "logies": 7916,
      "Ġquantity": 7917,
      "ĠIndian": 7918,
      "/?": 7919,
      "Day": 7920,
      "IAN": 7921,
      "Nj": 7922,
      "WG": 7923,
      "java": 7924,
      "tings": 7925,
      "åĻ": 7926,
      "Ġaircraft": 7927,
      "oul": 7928,
      "rim": 7929,
      "Ġsevere": 7930,
      "reatment": 7931,
      "ĠÐ¿Ð¾": 7932,
      "engine": 7933,
      "Ġupper": 7934,
      "Ġanswer": 7935,
      "ĠBEGIN": 7936,
      "Aug": 7937,
      "Mz": 7938,
      "lar": 7939,
      "âĢ¡": 7940,
      "article": 7941,
      "ferences": 7942,
      "ãģį": 7943,
      "Ġplat": 7944,
      "Ġpoles": 7945,
      "Ġsexual": 7946,
      "WT": 7947,
      "guid": 7948,
      "ĠHE": 7949,
      "ĠMAT": 7950,
      "ĠElect": 7951,
      "oston": 7952,
      "ĉĉĉĉĉ": 7953,
      "Ġpoll": 7954,
      "Ġdiseases": 7955,
      "áº£i": 7956,
      "Ġcultural": 7957,
      "receipt": 7958,
      "wizgrade": 7959,
      "Some": 7960,
      "XR": 7961,
      "bel": 7962,
      "Ġson": 7963,
      "ĠFin": 7964,
      "ingapore": 7965,
      "ĠPo": 7966,
      "artist": 7967,
      "Ġalbum": 7968,
      "Ġhighly": 7969,
      "ä¸Ģä¸ª": 7970,
      "ĠÐ±Ñĭ": 7971,
      "Ġdigital": 7972,
      "Ġdrugs": 7973,
      "Ġsmallest": 7974,
      "JOIN": 7975,
      "Lu": 7976,
      "}{": 7977,
      "usually": 7978,
      "ĠPlace": 7979,
      "renren": 7980,
      "Ġrounds": 7981,
      "DOST": 7982,
      "Ġprior": 7983,
      "åº¦": 7984,
      "ĠÐ´Ð»Ñı": 7985,
      "Ġcorrespond": 7986,
      "ç¤º": 7987,
      "}.{": 7988,
      "CAR": 7989,
      "ben": 7990,
      "iw": 7991,
      "å§": 7992,
      "Ġconstit": 7993,
      "Ġmemb": 7994,
      "tric": 7995,
      "reek": 7996,
      "æĸĻ": 7997,
      "Ġsmallint": 7998,
      "Ð½ÑĭÐµ": 7999,
      "Ġallows": 8000,
      "ediaan": 8001,
      "ĠPeople": 8002,
      "ANT": 8003,
      "bank": 8004,
      "uml": 8005,
      "âĢ¢": 8006,
      "Ġsomeone": 8007,
      "ĠÐĵ": 8008,
      "á»±": 8009,
      "eful": 8010,
      "UNIQUE": 8011,
      "PLACE": 8012,
      "ĠÐ½Ðµ": 8013,
      "ĠGeneral": 8014,
      "Ġinfluence": 8015,
      "OUT": 8016,
      "qz": 8017,
      "Ġbow": 8018,
      "Ġaspect": 8019,
      "URG": 8020,
      "ogle": 8021,
      "Ġserial": 8022,
      "ĠAlthough": 8023,
      "anguages": 8024,
      "EPID": 8025,
      "iy": 8026,
      "ĠFound": 8027,
      "ĠAlt": 8028,
      "ĠOpen": 8029,
      "college": 8030,
      "mak": 8031,
      "Ġkommune": 8032,
      "iverse": 8033,
      "NOWN": 8034,
      "Ġwriter": 8035,
      "Ġhealthy": 8036,
      "ç«Ļ": 8037,
      "ANGUAGE": 8038,
      "EG": 8039,
      "Jw": 8040,
      "Ġlay": 8041,
      "Ġwarm": 8042,
      "Ġdarwin": 8043,
      "lav": 8044,
      "util": 8045,
      "Ġvo": 8046,
      "META": 8047,
      "Ġjournal": 8048,
      "åĮĸ": 8049,
      "åĽ¾": 8050,
      "å¾·": 8051,
      "Ġinfection": 8052,
      "SysFile": 8053,
      "\":[{\"": 8054,
      "åĻ¨": 8055,
      "MODIF": 8056,
      "tR": 8057,
      "ÐĴ": 8058,
      "TEST": 8059,
      "olf": 8060,
      "Ġstar": 8061,
      "Ġrule": 8062,
      "astic": 8063,
      "Ġmonitor": 8064,
      "Ġhimself": 8065,
      "\\\",\\": 8066,
      "ĠWHAT": 8067,
      "Cw": 8068,
      "HAN": 8069,
      "iot": 8070,
      "ming": 8071,
      "Ġwalk": 8072,
      "Ġmis": 8073,
      "ĠÐ¡": 8074,
      "credit": 8075,
      "Ġbox": 8076,
      "ä»»": 8077,
      "éĹ®": 8078,
      "Ø±Ø§": 8079,
      "testTask": 8080,
      "merican": 8081,
      "ãĤģ": 8082,
      "ĠOffice": 8083,
      "darwin": 8084,
      "pdf": 8085,
      "xw": 8086,
      "istration": 8087,
      "riage": 8088,
      "Ġrich": 8089,
      "ĠGreat": 8090,
      "ORD": 8091,
      "Ġgetting": 8092,
      "related": 8093,
      "approved": 8094,
      "Ġnegative": 8095,
      "ĠAttendance": 8096,
      "THEN": 8097,
      "Ġsche": 8098,
      "stone": 8099,
      "Ġner": 8100,
      "ulit": 8101,
      "rief": 8102,
      "Ġstra": 8103,
      "strict": 8104,
      "apps": 8105,
      "Ġcurrently": 8106,
      "Ġforest": 8107,
      "Temp": 8108,
      "Xj": 8109,
      "dang": 8110,
      "iar": 8111,
      "zt": 8112,
      "Ġcms": 8113,
      "achi": 8114,
      "ikip": 8115,
      "umbai": 8116,
      "æĸĩåŃĹ": 8117,
      "cpus": 8118,
      "JS": 8119,
      "KR": 8120,
      "pkey": 8121,
      "ĠTop": 8122,
      "ateway": 8123,
      "utih": 8124,
      "Ġjumlah": 8125,
      "ÑĤÐ¾": 8126,
      "acher": 8127,
      "Ġnote": 8128,
      "ãĥĢ": 8129,
      "Ġarchitect": 8130,
      "SysFileController": 8131,
      "GY": 8132,
      "Ġsound": 8133,
      "ĠUt": 8134,
      "awa": 8135,
      "Ann": 8136,
      "Ġreading": 8137,
      "æ³¨": 8138,
      "ESS": 8139,
      "Page": 8140,
      "Vh": 8141,
      "XQ": 8142,
      "fY": 8143,
      "qQ": 8144,
      "vr": 8145,
      "ading": 8146,
      "Ġgender": 8147,
      "Ġsales": 8148,
      "åĲĮ": 8149,
      "ohns": 8150,
      "Ġplanet": 8151,
      "buffers": 8152,
      "PPL": 8153,
      "Ġcru": 8154,
      "Ġsl": 8155,
      "ĠTournament": 8156,
      "ĠClient": 8157,
      "Ġpages": 8158,
      "Ġwest": 8159,
      "Ġmap": 8160,
      "Ġevolution": 8161,
      "utr": 8162,
      "Ð°Ñģ": 8163,
      "datetime": 8164,
      "ADA": 8165,
      "plate": 8166,
      "å¾Ĺ": 8167,
      "ĠCompany": 8168,
      "Ġbasis": 8169,
      "å¿«éĢĴ": 8170,
      "Fy": 8171,
      "Key": 8172,
      "WW": 8173,
      "Ġinher": 8174,
      "ĠDuring": 8175,
      "Ð¸Ñı": 8176,
      "logs": 8177,
      "ĠDevelopment": 8178,
      "Ġimages": 8179,
      "Ġdrive": 8180,
      "Ġensure": 8181,
      "ãģ§ãģĻ": 8182,
      "Hu": 8183,
      "cached": 8184,
      "ports": 8185,
      "tutkinto": 8186,
      "hemat": 8187,
      "Ġmi": 8188,
      "Ġnom": 8189,
      "utc": 8190,
      "Ġdevices": 8191,
      "Ġang": 8192,
      "common": 8193,
      "Ġlaws": 8194,
      "Ġlaunch": 8195,
      "Ġefforts": 8196,
      "\\\"}]',": 8197,
      "LISTEN": 8198,
      "ï¼ī',": 8199,
      "éķ¿": 8200,
      "ãģĵãģ®": 8201,
      "Ġcmsuser": 8202,
      "ikipedia": 8203,
      ";\\\">": 8204,
      "THE": 8205,
      "ini": 8206,
      "rey": 8207,
      "Ġcold": 8208,
      "Ġwa": 8209,
      "Ġdied": 8210,
      "Ġharga": 8211,
      "Ġeius": 8212,
      "andom": 8213,
      "Ġprom": 8214,
      "imi": 8215,
      "ĠLo": 8216,
      "avain": 8217,
      "Ġkids": 8218,
      "ä»¬": 8219,
      "Short": 8220,
      "ÙĪØ±": 8221,
      "Ġallowed": 8222,
      "ĠStudent": 8223,
      "ãģ¦ãģĦãģ": 8224,
      "UNKNOWN": 8225,
      "ãĥĢãĥ": 8226,
      "GL": 8227,
      "SB": 8228,
      "echo": 8229,
      "Ġ}',": 8230,
      "ĠCouncil": 8231,
      "ULA": 8232,
      "ĠEgypt": 8233,
      "Ġatmosph": 8234,
      "Ġdiss": 8235,
      "flict": 8236,
      "Ġaffected": 8237,
      "reedom": 8238,
      "Ġdetails": 8239,
      "æĤ¨çļĦå¿«ä»¶": 8240,
      "ipe": 8241,
      "ipos": 8242,
      "¾ãģĻ": 8243,
      "erate": 8244,
      "ABLIS": 8245,
      "ĠMobile": 8246,
      "sequ": 8247,
      "Ġwaste": 8248,
      "Art": 8249,
      "ĠAirlines": 8250,
      "sbi": 8251,
      "Ġreceive": 8252,
      "straints": 8253,
      "è§Ĵ": 8254,
      "Ġbirds": 8255,
      "Ġdumped": 8256,
      "ãģŁãĤģ": 8257,
      "HD": 8258,
      "Kal": 8259,
      "PART": 8260,
      "ëĭ": 8261,
      "Ġtouch": 8262,
      "Ġcities": 8263,
      "Ġreve": 8264,
      "NTFS": 8265,
      "Ġtelevision": 8266,
      "Ð¾Ð¶": 8267,
      "ä½ĵ": 8268,
      "ESTABLIS": 8269,
      "ĠVirginia": 8270,
      "ĠJesus": 8271,
      ":\",\"": 8272,
      "Az": 8273,
      "UU": 8274,
      "WK": 8275,
      "}]}',": 8276,
      "RECV": 8277,
      "ĠVIEW": 8278,
      "Ġwood": 8279,
      "Ġforces": 8280,
      "oted": 8281,
      "ĠDATABASE": 8282,
      "IDA": 8283,
      "iva": 8284,
      "Ġsummer": 8285,
      "operstate": 8286,
      "LCJz": 8287,
      "currentLoadUser": 8288,
      "currentLoadSystem": 8289,
      "currentLoadNice": 8290,
      "currentLoadIdle": 8291,
      "currentLoadIrq": 8292,
      "rawCurrentLoadUser": 8293,
      "rawCurrentLoadSystem": 8294,
      "rawCurrentLoadNice": 8295,
      "rawCurrentLoadIdle": 8296,
      "rawCurrentLoadIrq": 8297,
      "Ġpersediaan": 8298,
      "slab": 8299,
      "Ġmotor": 8300,
      "swaptotal": 8301,
      "swapused": 8302,
      "swapfree": 8303,
      "åħ¥ãĤĮ": 8304,
      "avgLoad": 8305,
      "buffcache": 8306,
      "Ġfeatures": 8307,
      ":\"}]',": 8308,
      "ãģ¦ãģĦãģ¾ãģĻ": 8309,
      "ESTABLISHED": 8310,
      "fz": 8311,
      "ªį": 8312,
      "é«": 8313,
      "éļ": 8314,
      "éľ": 8315,
      "Ġice": 8316,
      "eries": 8317,
      "Ġcli": 8318,
      "Ġtools": 8319,
      "ĠMen": 8320,
      "elcome": 8321,
      "share": 8322,
      "å¸¦": 8323,
      "ifications": 8324,
      "Ġprotection": 8325,
      "ãģĻãĤĭãģŁãĤģ": 8326,
      "ILE": 8327,
      "JQ": 8328,
      "Pb": 8329,
      "mor": 8330,
      "press": 8331,
      "lend": 8332,
      "REN": 8333,
      "Ġbran": 8334,
      "Ġrebounds": 8335,
      "TOR": 8336,
      "ĠPHP": 8337,
      "keys": 8338,
      "center": 8339,
      "awn": 8340,
      "ÑĥÐ»": 8341,
      "æĪĳ": 8342,
      "ĠIsland": 8343,
      "ĠEngland": 8344,
      "HK": 8345,
      "Jp": 8346,
      "Med": 8347,
      "ku": 8348,
      "qK": 8349,
      "Łãĥ¼": 8350,
      "hel": 8351,
      "ĠNot": 8352,
      "Ġpet": 8353,
      "Ġmarch": 8354,
      "Ġmother": 8355,
      "ĠOf": 8356,
      "ĠOut": 8357,
      "TERMIN": 8358,
      "Ġseem": 8359,
      "Ġseek": 8360,
      "ĠGermany": 8361,
      "LOW": 8362,
      "Ġcolon": 8363,
      "Ġcommercial": 8364,
      "à¦°": 8365,
      "Ġcarry": 8366,
      "ĠIsrael": 8367,
      "è¡Įéĸĵ": 8368,
      "ºèªį": 8369,
      "amental": 8370,
      "åŃĹéĸĵ": 8371,
      "å¤§ãģį": 8372,
      "ãģ®å¤§ãģį": 8373,
      "ĠEnvironment": 8374,
      "ç¼ĸåı·": 8375,
      "çŃīãĤĴ": 8376,
      "friendly": 8377,
      "ãģ«åħ¥ãĤĮ": 8378,
      "æĸĩç«łãģ¯": 8379,
      "ç¢ºèªį": 8380,
      "æĸĩåŃĹãģ®å¤§ãģį": 8381,
      "ãģĵãģ®æĸĩç«łãģ¯": 8382,
      "ãĥĢãĥŁãĥ¼": 8383,
      "ãģĻãĤĭãģŁãĤģãģ«åħ¥ãĤĮ": 8384,
      "è¡ĮéĸĵçŃīãĤĴ": 8385,
      "ç¢ºèªįãģĻãĤĭãģŁãĤģãģ«åħ¥ãĤĮ": 8386,
      "æĸĩåŃĹãģ®å¤§ãģįãģķ": 8387,
      "ãģĵãģ®æĸĩç«łãģ¯ãĥĢãĥŁãĥ¼": 8388,
      "è¡ĮéĸĵçŃīãĤĴç¢ºèªįãģĻãĤĭãģŁãĤģãģ«åħ¥ãĤĮ": 8389,
      "ãģĵãģ®æĸĩç«łãģ¯ãĥĢãĥŁãĥ¼ãģ§ãģĻ": 8390,
      "è¡ĮéĸĵçŃīãĤĴç¢ºèªįãģĻãĤĭãģŁãĤģãģ«åħ¥ãĤĮãģ¦ãģĦãģ¾ãģĻ": 8391,
      "XXL": 8392,
      "full": 8393,
      "qw": 8394,
      "votes": 8395,
      "---": 8396,
      "ĠNet": 8397,
      "ĠAlex": 8398,
      "cos": 8399,
      "celer": 8400,
      "ĠSpr": 8401,
      "minal": 8402,
      "Ġsoon": 8403,
      "aled": 8404,
      "employed": 8405,
      "Ð½Ð¸Ðº": 8406,
      "Ġanti": 8407,
      "General": 8408,
      "String": 8409,
      "ĠSociety": 8410,
      "rees": 8411,
      "ĠTer": 8412,
      "ctors": 8413,
      "ĠMod": 8414,
      "Ð¸Ñģ": 8415,
      "IRURG": 8416,
      "logininfor": 8417,
      "ĠApplicable": 8418,
      "Ġcosts": 8419,
      "ĠÑĢÐ°Ð·": 8420,
      "Ġrequires": 8421,
      "Pri": 8422,
      "gov": 8423,
      "vz": 8424,
      "xA": 8425,
      "Ġelements": 8426,
      "Ġstay": 8427,
      "LOAD": 8428,
      "ASH": 8429,
      "Ġsurvey": 8430,
      "ĠSTART": 8431,
      "Ġshowed": 8432,
      "rieved": 8433,
      "Ġquickly": 8434,
      "uff": 8435,
      "Ĥ¬": 8436,
      "TED": 8437,
      "ĠCard": 8438,
      "\\\">\\": 8439,
      "Ġelev": 8440,
      "Ð½Ð¾Ð¹": 8441,
      "Ġrecorded": 8442,
      "Resource": 8443,
      "ĠEndPointID": 8444,
      "bottom": 8445,
      "Aur": 8446,
      "Nh": 8447,
      "Poly": 8448,
      "Sc": 8449,
      "aud": 8450,
      "mhz": 8451,
      "south": 8452,
      "wiki": 8453,
      "aran": 8454,
      "ĠViet": 8455,
      "irt": 8456,
      "section": 8457,
      "elt": 8458,
      "Ð°Ð»Ð¸": 8459,
      "Ġdisplay": 8460,
      "Ġmanner": 8461,
      "æµĭ": 8462,
      "pository": 8463,
      "Ġrules": 8464,
      "Ġdeliver": 8465,
      "Long": 8466,
      "MK": 8467,
      "MQ": 8468,
      "Male": 8469,
      "SG": 8470,
      "Ġwer": 8471,
      "cipl": 8472,
      "Ġlatin": 8473,
      "ansas": 8474,
      "exas": 8475,
      "Stud": 8476,
      "LAG": 8477,
      "Object": 8478,
      "Æ°á»Ľc": 8479,
      "ĠPhilippines": 8480,
      "Cash": 8481,
      "hot": 8482,
      "jn": 8483,
      "Ġpul": 8484,
      "DEC": 8485,
      "adel": 8486,
      "cohol": 8487,
      "Ġuseful": 8488,
      "ĠInformation": 8489,
      "Ġclassification": 8490,
      "å®ŀ": 8491,
      "omination": 8492,
      "nationality": 8493,
      "Ġdemand": 8494,
      "æ¬¡": 8495,
      "fy": 8496,
      "nam": 8497,
      "real": 8498,
      "Ġwaters": 8499,
      "Ġinstance": 8500,
      "Ġeg": 8501,
      "oses": 8502,
      "ĠDirect": 8503,
      "Ġstorage": 8504,
      "ĠGrand": 8505,
      "izes": 8506,
      "aks": 8507,
      "áĢĦ": 8508,
      "UNION": 8509,
      "Ġregions": 8510,
      "anned": 8511,
      "losses": 8512,
      "introduce": 8513,
      "Cut": 8514,
      "WD": 8515,
      "cus": 8516,
      "incre": 8517,
      "ĠCase": 8518,
      "osh": 8519,
      "Ġstress": 8520,
      "áº¡o": 8521,
      "Ġdiscovered": 8522,
      "TRO": 8523,
      "currency": 8524,
      "gun": 8525,
      "hs": 8526,
      "vtext": 8527,
      "Ġty": 8528,
      "Ġsave": 8529,
      "Ġsold": 8530,
      "Ð¸Ðº": 8531,
      "Ġuniversity": 8532,
      "Ġattended": 8533,
      "áĢ¬": 8534,
      "Ġworked": 8535,
      "Ġpopulations": 8536,
      "IZATION": 8537,
      "Ġeasily": 8538,
      "ĠFrancisco": 8539,
      "é«ĺ": 8540,
      "NP": 8541,
      "Wr": 8542,
      "Ġpregn": 8543,
      "Ġeat": 8544,
      "ĠMiss": 8545,
      "ometry": 8546,
      "keep": 8547,
      "apers": 8548,
      "Ġnumer": 8549,
      "ritory": 8550,
      "Ġagric": 8551,
      "ĠConfig": 8552,
      "Upload": 8553,
      "Ġcritical": 8554,
      "ç¦ı": 8555,
      "abetes": 8556,
      "->": 8557,
      "YD": 8558,
      "YO": 8559,
      "alla": 8560,
      "amen": 8561,
      "usion": 8562,
      "adores": 8563,
      "cile": 8564,
      "ĠLord": 8565,
      "begin": 8566,
      "MBER": 8567,
      "Pimp": 8568,
      "Wa": 8569,
      "iZ": 8570,
      "ØŃ": 8571,
      "itis": 8572,
      "style": 8573,
      "METH": 8574,
      "acirc": 8575,
      "issu": 8576,
      "åı£": 8577,
      "äºİ": 8578,
      "tyl": 8579,
      "Ġexpand": 8580,
      "Ġsuccessful": 8581,
      ".-)": 8582,
      "Combo": 8583,
      "Pu": 8584,
      "fast": 8585,
      "gers": 8586,
      "Ġhands": 8587,
      "Ġtoward": 8588,
      "ĠDem": 8589,
      "ĠArch": 8590,
      "ĠConstraints": 8591,
      "Ġolder": 8592,
      "Mc": 8593,
      "kd": 8594,
      "Ġdetect": 8595,
      "ĠLake": 8596,
      "Ġvalid": 8597,
      "license": 8598,
      "Ġgenre": 8599,
      "ously": 8600,
      "ĠÐ¿Ð¾Ñģ": 8601,
      "virtual": 8602,
      "ĠInternet": 8603,
      "Ġcelebr": 8604,
      "å¹¿ä¸ľ": 8605,
      "Ġbenefits": 8606,
      "criteria": 8607,
      "Ġappropriate": 8608,
      "Balmores": 8609,
      "FQ": 8610,
      "Men": 8611,
      "cli": 8612,
      "mv": 8613,
      "zen": 8614,
      "Ġê": 8615,
      "edu": 8616,
      "Ġband": 8617,
      "stic": 8618,
      "ĠBen": 8619,
      "Ġchurch": 8620,
      "former": 8621,
      "Ġyouth": 8622,
      "pays": 8623,
      "Ġepisodes": 8624,
      "æīĢ": 8625,
      "ipped": 8626,
      "vanced": 8627,
      "infra": 8628,
      "JX": 8629,
      "Mod": 8630,
      "SCO": 8631,
      "batch": 8632,
      "flag": 8633,
      "ili": 8634,
      "imo": 8635,
      "april": 8636,
      "iology": 8637,
      "Ġunits": 8638,
      "Ġaccur": 8639,
      "Ġeffort": 8640,
      "mony": 8641,
      "å°Ĩ": 8642,
      "Karachi": 8643,
      "á»©c": 8644,
      "CQ": 8645,
      "ENT": 8646,
      "LV": 8647,
      "Pj": 8648,
      "Ġ...": 8649,
      "ĠVANCOU": 8650,
      "ingu": 8651,
      "ĠLOC": 8652,
      "RAGE": 8653,
      "áĢĻ": 8654,
      "Ġmodels": 8655,
      "Ġconnection": 8656,
      "Ġexisting": 8657,
      "fj": 8658,
      "Ġsaw": 8659,
      "iders": 8660,
      "ĠVal": 8661,
      "DEL": 8662,
      "anda": 8663,
      "Ġapplied": 8664,
      "rypt": 8665,
      "Ġnovember": 8666,
      "Ġfeed": 8667,
      "ĠAnn": 8668,
      "attrs": 8669,
      "Ġauthors": 8670,
      "æ¹¾": 8671,
      "æ²³åĮĹ": 8672,
      "%?": 8673,
      "Ba": 8674,
      "OFF": 8675,
      "Pv": 8676,
      "yond": 8677,
      "zd": 8678,
      "ĠĠčĊ": 8679,
      "ĠWestern": 8680,
      "ĠVenue": 8681,
      "ĠCre": 8682,
      "ĠOther": 8683,
      "Ġvia": 8684,
      "ĠEmp": 8685,
      "Ġattr": 8686,
      "Ġexc": 8687,
      "Ġpurpose": 8688,
      "á»¹": 8689,
      "items": 8690,
      "à¸Ħ": 8691,
      "ceded": 8692,
      "ĠDATETIME": 8693,
      "domain": 8694,
      "ĠAssociation": 8695,
      "+';": 8696,
      "MX": 8697,
      "],\\\"": 8698,
      "oke": 8699,
      "Ø¬": 8700,
      "ĠTur": 8701,
      "ĠEl": 8702,
      "uteur": 8703,
      "ÑĥÑĤ": 8704,
      "Ġrapid": 8705,
      "ĉĉĉĉĉĉ": 8706,
      "migration": 8707,
      "JK": 8708,
      "pw": 8709,
      "qj": 8710,
      "tab": 8711,
      "oration": 8712,
      "aly": 8713,
      "Ġdry": 8714,
      "Ġtool": 8715,
      "thase": 8716,
      "unci": 8717,
      "avas": 8718,
      "nother": 8719,
      "ĠYour": 8720,
      "DATASET": 8721,
      "å¯¼": 8722,
      "Ġhttps": 8723,
      "Ġcuts": 8724,
      "Wu": 8725,
      "cross": 8726,
      "fX": 8727,
      "fold": 8728,
      "mu": 8729,
      "alo": 8730,
      "Ġhunt": 8731,
      "ĠPRE": 8732,
      "ibr": 8733,
      "áº¡nh": 8734,
      "æĿĥéĻĲ": 8735,
      ".');": 8736,
      "May": 8737,
      "RQ": 8738,
      "bes": 8739,
      "Ãħ": 8740,
      "idents": 8741,
      "Ġhot": 8742,
      "Ġintensity": 8743,
      "ĠÐļ": 8744,
      "åı¤": 8745,
      "Ġsoil": 8746,
      "tsr": 8747,
      "Proc": 8748,
      "speed": 8749,
      "step": 8750,
      "Ġexpected": 8751,
      "Ġresponsible": 8752,
      "Ġdestroy": 8753,
      "Jh": 8754,
      "Pl": 8755,
      "VV": 8756,
      "kj": 8757,
      "syn": 8758,
      "uuid": 8759,
      "Ġcam": 8760,
      "ĠNavy": 8761,
      "tocol": 8762,
      "åħ¶": 8763,
      "supplier": 8764,
      "ĠAustralia": 8765,
      "Mem": 8766,
      "Mumbai": 8767,
      "itt": 8768,
      "ĠBay": 8769,
      "Ġbeyond": 8770,
      "ĠLast": 8771,
      "ĠLatin": 8772,
      "CACHE": 8773,
      "ainer": 8774,
      "ickets": 8775,
      "RIAL": 8776,
      "Ġfloor": 8777,
      "PLAY": 8778,
      "è¿ĩ": 8779,
      "à¹Ī": 8780,
      "Ġvitamin": 8781,
      "Ġfunctions": 8782,
      "TL": 8783,
      "WY": 8784,
      "tipo": 8785,
      "vl": 8786,
      "Ġdark": 8787,
      "icht": 8788,
      "IFIER": 8789,
      "Ġtesting": 8790,
      "ifying": 8791,
      "primary": 8792,
      "Company": 8793,
      "filter": 8794,
      "Ġinvestig": 8795,
      "Ġdefined": 8796,
      "Ste": 8797,
      "rhb": 8798,
      "xp": 8799,
      "ÆĴ": 8800,
      "Ġtum": 8801,
      "IND": 8802,
      "ĠCPU": 8803,
      "Ġpadding": 8804,
      "ĠAm": 8805,
      "chassis": 8806,
      "Ġgts": 8807,
      "Ġleave": 8808,
      "Ins": 8809,
      "Ġrare": 8810,
      "Ġsurround": 8811,
      "Ġanything": 8812,
      "Ġequipment": 8813,
      "shops": 8814,
      "ography": 8815,
      "Ġexercise": 8816,
      "-[": 8817,
      "nG": 8818,
      "éª": 8819,
      "icial": 8820,
      "ulty": 8821,
      "outube": 8822,
      "Ġgrant": 8823,
      "PACE": 8824,
      "return": 8825,
      "lorida": 8826,
      "\\\":[\\\"": 8827,
      "Ġreligious": 8828,
      "Ġachieve": 8829,
      "Ġphilosop": 8830,
      "Ġremains": 8831,
      "ESSBASE": 8832,
      "Fj": 8833,
      "Rah": 8834,
      "VAL": 8835,
      "qm": 8836,
      "qs": 8837,
      "Â»": 8838,
      "Ø·": 8839,
      "Ġmoment": 8840,
      "liance": 8841,
      "Ġstro": 8842,
      "ecause": 8843,
      "Ġmedium": 8844,
      "offs": 8845,
      "Ġdegree": 8846,
      "Zj": 8847,
      "»åĬł": 8848,
      "è·": 8849,
      "Ġtoxic": 8850,
      "option": 8851,
      "Ġcomput": 8852,
      "Ġfinancial": 8853,
      "ratio": 8854,
      "Ġcycle": 8855,
      "ĠHouse": 8856,
      "hn": 8857,
      "rative": 8858,
      "Ġudt": 8859,
      "iling": 8860,
      "Ġlas": 8861,
      "iff": 8862,
      "onto": 8863,
      "áĢ¯": 8864,
      "çĶ±": 8865,
      "ĠClub": 8866,
      "ipping": 8867,
      "Completed": 8868,
      "Ġdocuments": 8869,
      "çº§": 8870,
      "Address": 8871,
      "ä»£çłģ": 8872,
      "ĠRetrieved": 8873,
      "VERSION": 8874,
      "ZY": 8875,
      "Zy": 8876,
      "hour": 8877,
      "tant": 8878,
      "Ġscode": 8879,
      "enty": 8880,
      "ĠSam": 8881,
      "odo": 8882,
      "coln": 8883,
      "aval": 8884,
      "ventory": 8885,
      "urred": 8886,
      "soft": 8887,
      "Ġcontribut": 8888,
      "ÐµÐ·": 8889,
      "Ġenter": 8890,
      "Ġvisiting": 8891,
      "è¥¿çľģ": 8892,
      "Create": 8893,
      "Location": 8894,
      "æľįåĬ¡": 8895,
      "Combobox": 8896,
      "Ġgtsrid": 8897,
      "Hi": 8898,
      "é£": 8899,
      "Ġaws": 8900,
      "ĠFL": 8901,
      "ĠCotton": 8902,
      "abul": 8903,
      "Ġgir": 8904,
      "Ġlands": 8905,
      "Ġchain": 8906,
      "eep": 8907,
      "These": 8908,
      "åıĸ": 8909,
      "=\\\"\\\"": 8910,
      "rices": 8911,
      "SNP": 8912,
      "Ġequal": 8913,
      "Ġidentified": 8914,
      "é¢ĺ": 8915,
      "Ġsuggest": 8916,
      "Ġseparate": 8917,
      "ĠĠĠĠĠĠĠĠĠĠĠĠĠĠĠĠĠĠĠĠĠĠĠĠĠĠĠĠĠĠĠĠĠĠĠĠĠĠĠĠĠĠĠĠĠĠĠĠĠĠĠĠĠĠĠĠĠĠĠĠĠĠĠĠĠĠĠĠĠĠĠĠĠĠĠĠĠĠĠĠĠĠĠĠĠĠĠĠĠĠĠĠĠĠĠĠĠĠĠĠĠĠĠĠĠĠĠĠĠĠĠĠĠĠĠĠĠĠĠĠĠĠĠĠĠĠĠĠĠĠĠĠĠĠĠĠĠĠĠĠĠĠĠĠĠĠĠĠĠĠĠĠĠĠĠĠĠĠĠĠĠĠĠĠĠĠĠĠĠĠĠĠĠĠĠĠĠĠĠĠĠĠĠĠĠĠĠĠĠĠĠĠĠĠĠĠĠĠĠĠĠĠĠĠĠĠĠĠĠĠĠĠĠĠĠĠĠĠĠĠĠĠĠĠĠĠĠĠĠĠĠĠĠĠĠĠĠĠĠĠĠĠĠĠĠĠĠĠĠĠĠĠĠĠĠĠĠĠĠĠĠĠĠĠĠĠĠĠĠĠĠĠĠĠĠĠĠĠĠĠĠĠĠĠĠĠĠĠĠĠĠĠĠĠĠĠĠĠĠĠĠĠĠĠĠĠĠĠĠĠĠĠĠĠĠĠĠĠĠĠĠĠĠĠĠĠĠĠĠĠĠĠĠĠĠĠĠĠĠĠĠĠĠĠĠĠĠĠĠĠĠĠĠĠĠĠĠĠĠĠĠĠĠĠĠĠĠĠĠĠĠĠĠĠĠĠĠĠĠĠĠĠĠĠĠĠĠĠĠĠĠĠĠĠĠĠĠĠĠĠĠĠĠĠĠĠĠĠĠĠĠĠĠĠĠĠĠĠĠĠĠĠĠĠĠĠĠĠĠĠĠĠĠĠĠĠĠĠĠĠĠĠĠĠĠĠĠĠĠĠĠĠĠĠĠĠĠĠĠĠĠĠĠĠĠĠĠĠĠĠĠĠĠĠĠĠĠĠĠĠĠĠĠĠĠĠĠĠĠĠĠĠĠĠĠĠĠĠĠĠĠĠĠĠĠĠĠĠĠĠĠĠĠĠĠĠĠĠĠĠĠĠĠĠĠĠĠĠĠĠĠĠĠĠĠĠĠĠĠĠĠĠĠĠĠĠĠĠĠĠĠĠĠĠĠĠĠĠĠĠĠĠĠĠĠĠĠĠĠĠĠĠĠĠĠĠĠĠĠĠĠĠĠĠĠĠĠĠĠĠĠĠĠĠĠĠĠĠĠĠĠĠĠĠĠĠĠĠĠĠĠĠĠĠĠĠĠĠĠĠĠĠĠĠĠĠĠĠĠĠĠĠĠĠĠĠĠĠĠĠĠĠĠĠĠĠĠĠĠĠĠĠĠĠĠĠĠĠĠĠĠĠĠĠĠĠĠĠĠĠĠĠĠĠĠĠĠĠĠĠĠĠĠĠĠĠĠĠĠĠĠĠĠĠĠĠĠĠĠĠĠĠĠĠĠĠĠĠĠĠĠĠĠĠĠĠĠĠĠĠĠĠĠĠĠĠĠĠĠĠĠĠĠĠĠĠĠĠĠĠĠĠĠĠĠĠĠĠĠĠĠĠĠĠĠĠĠĠĠĠĠĠĠĠĠĠĠĠ": 8918,
      "Ġpieces": 8919,
      "ĠFrance": 8920,
      "Ġfully": 8921,
      "BK": 8922,
      "eg": 8923,
      "Ġsla": 8924,
      "ĠPen": 8925,
      "ĠPlay": 8926,
      "ĠRun": 8927,
      "QUEN": 8928,
      "æł¸": 8929,
      "Ġeconomy": 8930,
      "Ġprofessor": 8931,
      "Ġcandidate": 8932,
      "Ġmedicine": 8933,
      "datat": 8934,
      "CX": 8935,
      "frequency": 8936,
      "Ġtah": 8937,
      "Ġtrib": 8938,
      "messages": 8939,
      "ĠPan": 8940,
      "ĠIll": 8941,
      "ĠDiv": 8942,
      "Ġrates": 8943,
      "photo": 8944,
      "FFER": 8945,
      "Ġweather": 8946,
      "Stock": 8947,
      "åħħ": 8948,
      "Ġrunning": 8949,
      "Ġfactor": 8950,
      "Ġoccurs": 8951,
      "Ġmajority": 8952,
      "Ġchoice": 8953,
      "åģļ": 8954,
      "ĠĠĠĠĠĠĠĠĠĠĠĠĠĠĠĠĠĠĠĠĠĠĠĠĠĠĠĠĠĠĠĠĠĠĠĠĠĠĠĠĠĠĠĠĠĠĠĠĠĠĠĠĠĠĠĠĠĠĠĠĠĠĠĠĠĠĠĠĠĠĠĠĠĠĠĠĠĠĠĠĠĠĠĠĠĠĠĠĠĠĠĠĠĠĠĠĠĠĠĠĠĠĠĠĠĠĠĠĠĠĠĠĠĠĠĠĠĠĠĠĠĠĠĠĠĠĠĠĠĠĠĠĠĠĠĠĠĠĠĠĠĠĠĠĠĠĠĠĠĠĠĠĠĠĠĠĠĠĠĠĠĠĠĠĠĠĠĠĠĠĠĠĠĠĠĠĠĠĠĠĠĠĠĠĠĠĠĠĠĠĠĠĠĠĠĠĠĠĠĠĠĠĠĠĠĠĠĠĠĠĠĠĠĠĠĠĠĠĠĠĠĠĠĠĠĠĠĠĠĠĠĠĠĠĠĠĠĠĠĠĠĠĠĠĠĠĠĠĠĠĠĠĠĠĠĠĠĠĠĠĠĠĠĠĠĠĠĠĠĠĠĠĠĠĠĠĠĠĠĠĠĠĠĠĠĠĠĠĠĠĠĠĠĠĠĠĠĠĠĠĠĠĠĠĠĠĠĠĠĠĠĠĠĠĠĠĠĠĠĠĠĠĠĠĠĠĠĠĠĠĠĠĠĠĠĠĠĠĠĠĠĠĠĠĠĠĠĠĠĠĠĠĠĠĠĠĠĠĠĠĠĠĠĠĠĠĠĠĠĠĠĠĠĠĠĠĠĠĠĠĠĠĠĠĠĠĠĠĠĠĠĠĠĠĠĠĠĠĠĠĠĠĠĠĠĠĠĠĠĠĠĠĠĠĠĠĠĠĠĠĠĠĠĠĠĠĠĠĠĠĠĠĠĠĠĠĠĠĠĠĠĠĠĠĠĠĠĠĠĠĠĠĠĠĠĠĠĠĠĠĠĠĠĠĠĠĠĠĠĠĠĠĠĠĠĠĠĠĠĠĠĠĠĠĠĠĠĠĠĠĠĠĠĠĠĠĠĠĠĠĠĠĠĠĠĠĠĠĠĠĠĠĠĠĠĠĠĠĠĠĠĠĠĠĠĠĠĠĠĠĠĠĠĠĠĠĠĠĠĠĠĠĠĠĠĠĠĠĠĠĠĠĠĠĠĠĠĠĠĠĠĠĠĠĠĠĠĠĠĠĠĠĠĠĠĠĠĠĠĠĠĠĠĠĠĠĠĠĠĠĠĠĠĠĠĠĠĠĠĠĠĠĠĠĠĠĠĠĠĠĠĠĠĠĠĠĠĠĠĠĠĠĠĠĠĠĠĠĠĠĠĠĠĠĠĠĠĠĠĠĠĠĠĠĠĠĠĠĠĠĠĠĠĠĠĠĠĠĠĠĠĠĠĠĠĠĠĠĠĠĠĠĠĠĠĠĠĠĠĠĠĠĠĠĠĠĠĠĠĠĠĠĠĠĠĠĠĠĠĠĠĠĠĠĠĠĠĠĠĠĠĠĠĠĠĠĠĠĠĠĠĠĠĠĠĠĠĠĠĠĠĠĠĠĠĠĠĠĠĠĠĠĠĠĠĠĠĠĠĠĠĠĠĠĠĠĠĠĠĠĠĠĠĠĠĠĠĠĠĠĠĠĠĠĠĠĠĠĠĠĠĠĠĠĠĠĠĠĠĠĠĠĠĠĠĠĠĠĠĠĠĠĠĠĠĠĠĠĠĠĠĠĠĠĠĠĠĠĠĠĠĠĠĠĠĠĠĠĠĠĠĠĠĠĠĠĠĠĠĠĠĠĠĠĠĠĠĠĠĠĠĠĠĠĠĠĠĠĠĠĠĠĠĠĠĠĠĠĠĠĠĠĠĠĠĠĠĠĠĠĠĠĠĠĠĠĠĠĠĠĠĠĠĠĠĠ": 8955,
      "Fk": 8956,
      "UG": 8957,
      "fu": 8958,
      "ĠTIME": 8959,
      "Ġwoman": 8960,
      "Ġvon": 8961,
      "ĠExt": 8962,
      "request": 8963,
      "ä½Ĩ": 8964,
      "lence": 8965,
      "æŀľ": 8966,
      "åĽĽå·Ŀçľģ": 8967,
      "Ġsynthase": 8968,
      "æ·»åĬł": 8969,
      "áº§n": 8970,
      "METHOD": 8971,
      ")</": 8972,
      "Ret": 8973,
      "Ww": 8974,
      "card": 8975,
      "Ã±": 8976,
      "èĹ": 8977,
      "Ġ\\\\": 8978,
      "Ġlayer": 8979,
      "Ġflu": 8980,
      "tection": 8981,
      "questions": 8982,
      "ITAL": 8983,
      "Ġancient": 8984,
      "ĠUse": 8985,
      "ĠControl": 8986,
      "BV": 8987,
      "Element": 8988,
      "HX": 8989,
      "Work": 8990,
      "bad": 8991,
      "cest": 8992,
      "input": 8993,
      "ĠValle": 8994,
      "Ġfather": 8995,
      "abilities": 8996,
      "icip": 8997,
      "urance": 8998,
      "ĠPerson": 8999,
      "Ġchampion": 9000,
      "åħ¨": 9001,
      "Only": 9002,
      "PRINT": 9003,
      "See": 9004,
      "Ø²": 9005,
      "áģ": 9006,
      "Ġdro": 9007,
      ",'-',": 9008,
      "ader": 9009,
      "Ġformed": 9010,
      "Ġves": 9011,
      "Ġgarden": 9012,
      "ĠMal": 9013,
      "ĠPl": 9014,
      "ĠEvent": 9015,
      "Ġcompar": 9016,
      "åĮħ": 9017,
      "Ġcalc": 9018,
      "Ġhope": 9019,
      "niques": 9020,
      "downs": 9021,
      "Check": 9022,
      "Ġcombined": 9023,
      "OY": 9024,
      "SR": 9025,
      "fg": 9026,
      "song": 9027,
      "çĤ": 9028,
      "rem": 9029,
      "ĠTra": 9030,
      "stances": 9031,
      "ĠMex": 9032,
      "ĠPat": 9033,
      "separ": 9034,
      "acyl": 9035,
      "ĠKulit": 9036,
      "Ġalone": 9037,
      "ustry": 9038,
      "NEU": 9039,
      "åĪ¶": 9040,
      "Ġfemale": 9041,
      "Apple": 9042,
      "Ġsynd": 9043,
      "visible": 9044,
      "ABUHTM": 9045,
      "Form": 9046,
      "Je": 9047,
      "Jl": 9048,
      "Zr": 9049,
      "cion": 9050,
      "Ġ!": 9051,
      "Ġwall": 9052,
      "Ġdestin": 9053,
      "inger": 9054,
      "ston": 9055,
      "unched": 9056,
      "Ġitems": 9057,
      "`))": 9058,
      "Ġ<=": 9059,
      "Ġ<>": 9060,
      "à¸§": 9061,
      "Ġnovel": 9062,
      "monitor": 9063,
      "ĠAmericans": 9064,
      "Ġsolution": 9065,
      "æºª": 9066,
      "ĠLocation": 9067,
      "ĠFirefox": 9068,
      "ARIO": 9069,
      "Ġpp": 9070,
      "Ġdensity": 9071,
      "ĠINTER": 9072,
      "Ġseven": 9073,
      "Ġadults": 9074,
      "å®¹": 9075,
      "ourses": 9076,
      "áºŃn": 9077,
      "èģĶç³»": 9078,
      "HG": 9079,
      "Jn": 9080,
      "Ny": 9081,
      "Ut": 9082,
      "bh": 9083,
      "cular": 9084,
      "gV": 9085,
      "scope": 9086,
      "ux": 9087,
      "Ġĉ": 9088,
      "Ġgave": 9089,
      "Ġperformed": 9090,
      "Ġperhaps": 9091,
      "ĠProgram": 9092,
      "Ġpriv": 9093,
      "Ġsolid": 9094,
      "results": 9095,
      "Ġliterature": 9096,
      "Ġfields": 9097,
      "extension": 9098,
      "Ġcompletely": 9099,
      "Ġasked": 9100,
      "DOM": 9101,
      "JY": 9102,
      "LG": 9103,
      "ech": 9104,
      "youtube": 9105,
      "Ġsand": 9106,
      "Ġforward": 9107,
      "igan": 9108,
      "POS": 9109,
      "ĠÐ¿Ð¾Ð´": 9110,
      "æİ¥": 9111,
      "èĭı": 9112,
      "Ġmention": 9113,
      "plugin": 9114,
      "Abu": 9115,
      "Bar": 9116,
      "Cy": 9117,
      "Jy": 9118,
      "QE": 9119,
      "Rat": 9120,
      "mg": 9121,
      "Ġing": 9122,
      "Ġcat": 9123,
      "Ġfiles": 9124,
      "asure": 9125,
      "ĠMuseum": 9126,
      "START": 9127,
      "Ġconflict": 9128,
      "Ġdel": 9129,
      "imal": 9130,
      "theme": 9131,
      "Ġjanuary": 9132,
      "feed": 9133,
      "matic": 9134,
      "Ġprison": 9135,
      "Ġstandards": 9136,
      "ÃĥÆĴ": 9137,
      "Ġvehicle": 9138,
      "Ġpublish": 9139,
      "Request": 9140,
      "nom": 9141,
      ",');": 9142,
      "Ġemer": 9143,
      "charge": 9144,
      "Ġforgot": 9145,
      "Ġvio": 9146,
      "Ġdeleted": 9147,
      "ĠLouis": 9148,
      "Ġexamin": 9149,
      "Ġclaim": 9150,
      "á»ķ": 9151,
      "izon": 9152,
      "november": 9153,
      "è¯¢": 9154,
      "è¯Ŀ": 9155,
      "Ġpassed": 9156,
      "Ġblue": 9157,
      "åķĬåķĬåķĬåķĬ": 9158,
      "Imp": 9159,
      "LIST": 9160,
      "SÃ£o": 9161,
      "Toyota": 9162,
      "Xz": 9163,
      "ULAR": 9164,
      "ĠSource": 9165,
      "Ġgives": 9166,
      "Ġspirit": 9167,
      "NAV": 9168,
      "ÑĥÑĩ": 9169,
      "Query": 9170,
      "Ġends": 9171,
      "CoA": 9172,
      "Ġevening": 9173,
      "åŁİåĮº": 9174,
      "odiums": 9175,
      "Census": 9176,
      "Singapore": 9177,
      "nz": 9178,
      "vari": 9179,
      "Ġsd": 9180,
      "oral": 9181,
      "ĠTitle": 9182,
      "Ġnvarchar": 9183,
      "Ġelement": 9184,
      "ĠMass": 9185,
      "agen": 9186,
      "ĠĠĠĠĠĠĠĠĠĠĠĠĠĠĠĠĠĠĠĠĠĠĠĠĠĠĠĠĠĠĠ": 9187,
      "ĠDan": 9188,
      "Ġones": 9189,
      "oday": 9190,
      "aka": 9191,
      "ĠStreet": 9192,
      "alend": 9193,
      "Ġpred": 9194,
      "Ġcoming": 9195,
      "Ð»Ð¸ÑĨ": 9196,
      "Ġbreast": 9197,
      "defaults": 9198,
      "Ġchanged": 9199,
      "Ð°Ð²Ð¾Ð´": 9200,
      "Ġbenefit": 9201,
      "Ġsurgery": 9202,
      "Ġhelps": 9203,
      "æµĭè¯ķ": 9204,
      "QK": 9205,
      "WI": 9206,
      "material": 9207,
      "var": 9208,
      "Øµ": 9209,
      "ĠFe": 9210,
      "ĠCom": 9211,
      "Ġfle": 9212,
      "cost": 9213,
      "ĠPH": 9214,
      "ä¿Ŀ": 9215,
      "Ġprocesses": 9216,
      "æŀ¶": 9217,
      "Ġsituation": 9218,
      "BG": 9219,
      "Gross": 9220,
      "RV": 9221,
      "SL": 9222,
      "nr": 9223,
      "staff": 9224,
      "una": 9225,
      "tery": 9226,
      "ĠEnt": 9227,
      "ĠHen": 9228,
      "Ġrv": 9229,
      "ÐµÑģÐº": 9230,
      "Ġcoordin": 9231,
      "Ġliber": 9232,
      "payment": 9233,
      "Ġorganizations": 9234,
      "ĠÐ¸Ð·": 9235,
      "ĠParty": 9236,
      "technic": 9237,
      ".|": 9238,
      "CIT": 9239,
      "Ill": 9240,
      "WL": 9241,
      "Zz": 9242,
      "vj": 9243,
      "wers": 9244,
      "ĠSum": 9245,
      "ĠSince": 9246,
      "istan": 9247,
      "Ġstock": 9248,
      "ĠÐŁ": 9249,
      "Ġcool": 9250,
      "Ġphosph": 9251,
      "otel": 9252,
      "ÃĥÆĴO": 9253,
      "GING": 9254,
      "aign": 9255,
      "èĴ": 9256,
      "Ġoctober": 9257,
      "Ġbon": 9258,
      "ĠBro": 9259,
      "ĠBud": 9260,
      "ĠMem": 9261,
      "Ð¾Ñĩ": 9262,
      "merchant": 9263,
      "Ġspent": 9264,
      "Ġlap": 9265,
      "ä¹Ī": 9266,
      "Ġantib": 9267,
      "Ġtechnologies": 9268,
      "Ġappears": 9269,
      "éĿĴ": 9270,
      "),('/": 9271,
      "Â·Â·": 9272,
      "phosphate": 9273,
      "NK": 9274,
      "oes": 9275,
      "ofert": 9276,
      "success": 9277,
      "inte": 9278,
      "Ġaug": 9279,
      "ĠNAD": 9280,
      "ramp": 9281,
      "ĠPlan": 9282,
      "aki": 9283,
      "ï¼ģ": 9284,
      "Ġnothing": 9285,
      "notify": 9286,
      "ĠAccording": 9287,
      "Ġemployee": 9288,
      "Ġestablish": 9289,
      "çİ°": 9290,
      "limiter": 9291,
      "Cutoff": 9292,
      "Ms": 9293,
      "mr": 9294,
      "pres": 9295,
      "Ġsugar": 9296,
      "alan": 9297,
      "lling": 9298,
      "ĠCOLLATION": 9299,
      "Char": 9300,
      "PhÃº": 9301,
      "Ġactual": 9302,
      "curd": 9303,
      "','[]": 9304,
      "command": 9305,
      "ĠFoundation": 9306,
      "JV": 9307,
      "Os": 9308,
      "Ug": 9309,
      "ZA": 9310,
      "Ġly": 9311,
      "Ġdirection": 9312,
      "Ġvac": 9313,
      "ĠDoc": 9314,
      "Ġveget": 9315,
      "ĠManagement": 9316,
      "Ġfigure": 9317,
      "Hr": 9318,
      "Mi": 9319,
      "Mw": 9320,
      "RUNT": 9321,
      "TI": 9322,
      "Ze": 9323,
      "burg": 9324,
      "incoln": 9325,
      "Ġcop": 9326,
      "TERED": 9327,
      "DEF": 9328,
      "Ġeight": 9329,
      "ulum": 9330,
      "angabad": 9331,
      "åĽŀ": 9332,
      "æĥħ": 9333,
      "ĠRobert": 9334,
      "ohnson": 9335,
      "Aurangabad": 9336,
      "Email": 9337,
      "hor": 9338,
      "nB": 9339,
      "qy": 9340,
      "zer": 9341,
      "æ¶": 9342,
      "ĠNow": 9343,
      "ĠCourt": 9344,
      "Ġplease": 9345,
      "ady": 9346,
      "Ġnombre": 9347,
      "ĠWhite": 9348,
      "pel": 9349,
      "Ġkin": 9350,
      "phia": 9351,
      "æĸ°å": 9352,
      "Ġdeclare": 9353,
      "Ġscale": 9354,
      "ĠBook": 9355,
      "Ġadvant": 9356,
      "ĠRegion": 9357,
      "bravo": 9358,
      "quencing": 9359,
      "Distribution": 9360,
      "','[]','{\\\"": 9361,
      "Hh": 9362,
      "Mo": 9363,
      "tl": 9364,
      "anch": 9365,
      "adian": 9366,
      "urse": 9367,
[...]
